{
  "phoneme_to_id": {
    "N": 0,
    "R": 1,
    "R\u02b2": 2,
    "R\u032a": 3,
    "R\u032a|R": 4,
    "R\u032a\u0325|R\u0325": 5,
    "R\u032a\u0330|R\u0330": 6,
    "a": 7,
    "ae": 8,
    "ae\u031e": 9,
    "ae\u031e\u02e4": 10,
    "ae\u032f": 11,
    "ai": 12,
    "ai\u032f": 13,
    "ai\u032f\u02d0": 14,
    "ao": 15,
    "ao\u031e": 16,
    "ao\u031e\u02e4": 17,
    "au": 18,
    "au\u02d0": 19,
    "au\u031c": 20,
    "au\u032f": 21,
    "ay": 22,
    "a\u0254": 23,
    "a\u0259": 24,
    "a\u025b": 25,
    "a\u0268": 26,
    "a\u026a": 27,
    "a\u026a\u0303": 28,
    "a\u026a\u032f": 29,
    "a\u026f": 30,
    "a\u026f\u0303": 31,
    "a\u0275\u032f": 32,
    "a\u028a": 33,
    "a\u028a\u026a": 34,
    "a\u028a\u0303": 35,
    "a\u028a\u032f": 36,
    "a\u02b1": 37,
    "a\u02b2": 38,
    "a\u02b2\u02d0": 39,
    "a\u02c0": 40,
    "a\u02d0": 41,
    "a\u02d0i": 42,
    "a\u02d0i\u0306": 43,
    "a\u02d0i\u032f": 44,
    "a\u02d0u": 45,
    "a\u02d0u\u0306": 46,
    "a\u02d0u\u032f": 47,
    "a\u02d0\u026a": 48,
    "a\u02d1": 49,
    "a\u02de": 50,
    "a\u02de\u02d0": 51,
    "a\u02de\u02e4": 52,
    "a\u02e0": 53,
    "a\u02e4": 54,
    "a\u02e4\u02d0": 55,
    "a\u0303": 56,
    "a\u0303e\u031e\u0303\u02e4": 57,
    "a\u0303i": 58,
    "a\u0303i\u0303": 59,
    "a\u0303i\u032f": 60,
    "a\u0303o\u0303": 61,
    "a\u0303o\u031e\u0303\u02e4": 62,
    "a\u0303u\u0303": 63,
    "a\u0303u\u032f": 64,
    "a\u0303u\u032f\u0303": 65,
    "a\u0303\u025b\u0303": 66,
    "a\u0303\u026a\u032f\u02d0": 67,
    "a\u0303\u02d0": 68,
    "a\u0303\u02e4": 69,
    "a\u0303\u02e4\u02d0": 70,
    "a\u0303\u0308": 71,
    "a\u0303\u0308\u02d0": 72,
    "a\u0306": 73,
    "a\u0306\u0303": 74,
    "a\u0308": 75,
    "a\u0308i": 76,
    "a\u0308i\u032f": 77,
    "a\u0308u\u032f": 78,
    "a\u0308u\u033d": 79,
    "a\u0308\u02d0": 80,
    "a\u030a": 81,
    "a\u0319": 82,
    "a\u0319\u02d0": 83,
    "a\u0319\u02e0": 84,
    "a\u031e": 85,
    "a\u031f": 86,
    "a\u031fi": 87,
    "a\u031f\u02d0": 88,
    "a\u031f\u02de": 89,
    "a\u031f\u0303": 90,
    "a\u031f\u0303i\u0303": 91,
    "a\u031f\u0303\u02d0": 92,
    "a\u031f\u0319\u02d0": 93,
    "a\u0320": 94,
    "a\u0320\u02d0": 95,
    "a\u0320\u0308": 96,
    "a\u0320\u0308\u02d0": 97,
    "a\u0324": 98,
    "a\u0324i\u0324": 99,
    "a\u0324u\u0324": 100,
    "a\u0324\u026f\u0324": 101,
    "a\u0324\u02d0": 102,
    "a\u0324\u02d1": 103,
    "a\u0324\u0303": 104,
    "a\u0324\u0303\u0308\u02d0": 105,
    "a\u0324\u0308": 106,
    "a\u0325": 107,
    "a\u0330": 108,
    "a\u0330i\u0330": 109,
    "a\u0330u\u0330": 110,
    "a\u0330\u026a\u0330": 111,
    "a\u0330\u026f\u0330": 112,
    "a\u0330\u02d0": 113,
    "a\u0330\u02d1": 114,
    "a\u0330\u0303": 115,
    "a\u1d31": 116,
    "b": 117,
    "bm": 118,
    "br": 119,
    "bv": 120,
    "bv\u02b7": 121,
    "bz": 122,
    "bz\u02b7": 123,
    "b\u0261": 124,
    "b\u0266": 125,
    "b\u027e": 126,
    "b\u02b1": 127,
    "b\u02b1\u02d0": 128,
    "b\u02b2": 129,
    "b\u02b2\u02d0": 130,
    "b\u02b7": 131,
    "b\u02b7\u02d0": 132,
    "b\u02b7\u02e0": 133,
    "b\u02bc": 134,
    "b\u02c0": 135,
    "b\u02d0": 136,
    "b\u02de": 137,
    "b\u02e0": 138,
    "b\u02e4": 139,
    "b\u02e4\u02d0": 140,
    "b\u0324": 141,
    "b\u0324v\u0324": 142,
    "b\u0324z\u0324": 143,
    "b\u0324\u02b2": 144,
    "b\u0324\u02d0": 145,
    "b\u0324\u0325": 146,
    "b\u0325": 147,
    "b\u0325\u02b0": 148,
    "b\u0325\u02d0": 149,
    "b\u0329": 150,
    "b\u032a": 151,
    "b\u0330": 152,
    "b\u033b": 153,
    "b\u0348": 154,
    "b\u0348\u02d0": 155,
    "b\u0349": 156,
    "b\u03b2": 157,
    "b\u207f": 158,
    "c": 159,
    "cn\u0320": 160,
    "c\u00e7": 161,
    "c\u00e7\u02b0": 162,
    "c\u00e7\u02b7": 163,
    "c\u00e7\u02b7\u02b0": 164,
    "c\u00e7\u02bc": 165,
    "c\u00e7\u02d0": 166,
    "c\u0272": 167,
    "c\u02b0": 168,
    "c\u02b0\u02d0": 169,
    "c\u02b2": 170,
    "c\u02b7": 171,
    "c\u02b7\u02b0": 172,
    "c\u02bc": 173,
    "c\u02bc\u02d0": 174,
    "c\u02c0": 175,
    "c\u02d0": 176,
    "c\u031f": 177,
    "c\u0320": 178,
    "c\u0324": 179,
    "c\u0330": 180,
    "c\u033b": 181,
    "c\u033b\u031f": 182,
    "d": 183,
    "dl": 184,
    "dl\u02b7": 185,
    "dn": 186,
    "dr": 187,
    "dx": 188,
    "dz": 189,
    "dz\u02b1": 190,
    "dz\u02b2": 191,
    "dz\u02b7": 192,
    "dz\u02bc": 193,
    "dz\u02d0": 194,
    "dz\u02e0": 195,
    "dz\u0324": 196,
    "dz\u032a": 197,
    "dz\u033a": 198,
    "dz\u033b": 199,
    "d\u026e": 200,
    "d\u027e": 201,
    "d\u0291": 202,
    "d\u0291\u02b1": 203,
    "d\u0291\u02b1\u02d0": 204,
    "d\u0291\u02d0": 205,
    "d\u0291\u1da3": 206,
    "d\u02b1": 207,
    "d\u02b2": 208,
    "d\u02b7": 209,
    "d\u02b7\u02b2": 210,
    "d\u02bc": 211,
    "d\u02bckx\u02bc": 212,
    "d\u02c0": 213,
    "d\u02d0": 214,
    "d\u02e0": 215,
    "d\u02e4": 216,
    "d\u02e4\u02d0": 217,
    "d\u0319\u02e4": 218,
    "d\u031e": 219,
    "d\u031f": 220,
    "d\u031fz\u031f": 221,
    "d\u031f\u0291\u031f": 222,
    "d\u031f\u0292\u031f": 223,
    "d\u031f\u02d0\u0291\u031f": 224,
    "d\u0320": 225,
    "d\u0320z\u0320\u02b2": 226,
    "d\u0320\u0292": 227,
    "d\u0320\u0292x\u02bc": 228,
    "d\u0320\u0292\u027e": 229,
    "d\u0320\u0292\u02b0": 230,
    "d\u0320\u0292\u02b1": 231,
    "d\u0320\u0292\u02b2": 232,
    "d\u0320\u0292\u02b7": 233,
    "d\u0320\u0292\u02bc": 234,
    "d\u0320\u0292\u02d0": 235,
    "d\u0320\u0292\u02e0": 236,
    "d\u0320\u0292\u0324": 237,
    "d\u0320\u0292\u0324\u02d0": 238,
    "d\u0320\u0293": 239,
    "d\u0320\u0293\u02b7": 240,
    "d\u0320\u02b2": 241,
    "d\u0320\u02d0\u0292": 242,
    "d\u0320\u0324\u0292\u0324": 243,
    "d\u0320\u0330": 244,
    "d\u0320\u0348\u0292": 245,
    "d\u0320\u207f": 246,
    "d\u0324": 247,
    "d\u0324z": 248,
    "d\u0324z\u0324": 249,
    "d\u0324z\u0324\u02d0": 250,
    "d\u0324\u026e\u0324": 251,
    "d\u0324\u0291\u0324": 252,
    "d\u0324\u0292\u0324": 253,
    "d\u0324\u0292\u0324\u02d0": 254,
    "d\u0324\u0325": 255,
    "d\u0325": 256,
    "d\u0325z\u0325": 257,
    "d\u0325z\u0325\u02b2": 258,
    "d\u0325\u0291\u0325": 259,
    "d\u0325\u0292\u030a": 260,
    "d\u0325\u0292\u0325": 261,
    "d\u0325\u02b2": 262,
    "d\u0325\u02d0": 263,
    "d\u0329": 264,
    "d\u032a": 265,
    "d\u032al\u032a": 266,
    "d\u032an\u032a": 267,
    "d\u032ax": 268,
    "d\u032az": 269,
    "d\u032az\u032a": 270,
    "d\u032az\u032a|dz": 271,
    "d\u032az\u032a\u02b2": 272,
    "d\u032az\u032a\u02b2|dz\u02b2": 273,
    "d\u032az\u032a\u02d0": 274,
    "d\u032az\u032a\u0324|dz\u0324": 275,
    "d\u032a|d": 276,
    "d\u032a\u00f0": 277,
    "d\u032a\u00f0\u032a": 278,
    "d\u032a\u0266": 279,
    "d\u032a\u026e\u032a|d\u026e": 280,
    "d\u032a\u0292": 281,
    "d\u032a\u02b1": 282,
    "d\u032a\u02b1\u02d0": 283,
    "d\u032a\u02b2": 284,
    "d\u032a\u02b2|d\u02b2": 285,
    "d\u032a\u02b7|d\u02b7": 286,
    "d\u032a\u02bckx\u02bc": 287,
    "d\u032a\u02d0": 288,
    "d\u032a\u02e0": 289,
    "d\u032a\u02e4": 290,
    "d\u032a\u02e4|d\u02e4": 291,
    "d\u032a\u02e4\u02d0": 292,
    "d\u032a\u031a": 293,
    "d\u032a\u0324": 294,
    "d\u032a\u0324|d\u0324": 295,
    "d\u032a\u0324\u02d0": 296,
    "d\u032a\u0324\u0325": 297,
    "d\u032a\u0325": 298,
    "d\u032a\u0330": 299,
    "d\u032a\u0330|d\u0330": 300,
    "d\u032a\u033a": 301,
    "d\u032a\u033b": 302,
    "d\u032a\u207f": 303,
    "d\u0330": 304,
    "d\u033a": 305,
    "d\u033az\u033a": 306,
    "d\u033az\u033a\u02d0": 307,
    "d\u033a\u0292\u033a": 308,
    "d\u033a\u02d0": 309,
    "d\u033a\u0320\u0292\u033a\u02b7": 310,
    "d\u033a\u0324": 311,
    "d\u033a\u0325": 312,
    "d\u033a\u0325z\u033a\u0325": 313,
    "d\u033b": 314,
    "d\u033bz\u033b": 315,
    "d\u033bz\u033b\u02d0": 316,
    "d\u033b\u0291\u033b": 317,
    "d\u033b\u0292\u033b": 318,
    "d\u033b\u02b2": 319,
    "d\u033b\u02d0": 320,
    "d\u033b\u0324": 321,
    "d\u033b\u0324\u0291\u033b\u0324": 322,
    "d\u0347z\u0347": 323,
    "d\u0348": 324,
    "d\u0348\u02d0": 325,
    "d\u1da3": 326,
    "d\u207f": 327,
    "e": 328,
    "ea": 329,
    "ei": 330,
    "ei\u0303": 331,
    "ei\u0319": 332,
    "ei\u032f": 333,
    "eo": 334,
    "eu": 335,
    "eu\u031c": 336,
    "eu\u032f": 337,
    "e\u0254": 338,
    "e\u0258": 339,
    "e\u0259": 340,
    "e\u0259\u026a": 341,
    "e\u025b": 342,
    "e\u026a": 343,
    "e\u026a\u0303": 344,
    "e\u026a\u032f": 345,
    "e\u028a": 346,
    "e\u028a\u032f": 347,
    "e\u028c\u032f": 348,
    "e\u02b1": 349,
    "e\u02c0": 350,
    "e\u02d0": 351,
    "e\u02d0i\u032f": 352,
    "e\u02d1": 353,
    "e\u02de": 354,
    "e\u02e0": 355,
    "e\u02e4": 356,
    "e\u0303": 357,
    "e\u0303i\u0303": 358,
    "e\u0303i\u032f": 359,
    "e\u0303\u026a\u0303": 360,
    "e\u0303\u026a\u032f\u0303": 361,
    "e\u0303\u02d0": 362,
    "e\u0306": 363,
    "e\u0308": 364,
    "e\u0308\u02d0": 365,
    "e\u0318": 366,
    "e\u0318\u02d0": 367,
    "e\u0319": 368,
    "e\u031d": 369,
    "e\u031e": 370,
    "e\u031ea": 371,
    "e\u031ei": 372,
    "e\u031eo\u031e": 373,
    "e\u031eu": 374,
    "e\u031eu\u032f": 375,
    "e\u031e\u0259": 376,
    "e\u031e\u02d0": 377,
    "e\u031e\u02e4": 378,
    "e\u031e\u0303": 379,
    "e\u031e\u0303i\u0303": 380,
    "e\u031e\u0303u\u0303": 381,
    "e\u031e\u0303\u02d0": 382,
    "e\u031e\u0306": 383,
    "e\u031e\u0308": 384,
    "e\u031e\u0325": 385,
    "e\u031e\u0330": 386,
    "e\u031e\u0330\u0303": 387,
    "e\u0320": 388,
    "e\u0320\u031e": 389,
    "e\u0324": 390,
    "e\u0324\u02d0": 391,
    "e\u0324\u02d1": 392,
    "e\u0325": 393,
    "e\u0325\u02d0": 394,
    "e\u032f": 395,
    "e\u032fa\u0308": 396,
    "e\u0330": 397,
    "e\u0330\u026a\u0330": 398,
    "e\u0330\u02d0": 399,
    "e\u0330\u02d1": 400,
    "e\u0330\u0303": 401,
    "f": 402,
    "f\u027e": 403,
    "f\u0283": 404,
    "f\u02b0": 405,
    "f\u02b2": 406,
    "f\u02b2\u02d0": 407,
    "f\u02b7": 408,
    "f\u02b7\u02d0": 409,
    "f\u02bc": 410,
    "f\u02d0": 411,
    "f\u02d1": 412,
    "f\u02e0": 413,
    "f\u0329": 414,
    "f\u0330": 415,
    "f\u0348\u02d0": 416,
    "f\u0349": 417,
    "h": 418,
    "h\u02b2": 419,
    "h\u02b7": 420,
    "h\u02b7\u02b2": 421,
    "h\u02bc": 422,
    "h\u02c0": 423,
    "h\u02d0": 424,
    "h\u0303": 425,
    "h\u1da3": 426,
    "i": 427,
    "ia": 428,
    "iau": 429,
    "ia\u02d0": 430,
    "ia\u0303": 431,
    "ia\u0308u\u033d": 432,
    "ia\u031f": 433,
    "ie": 434,
    "ie\u02d0": 435,
    "ie\u0303": 436,
    "ie\u0303\u02d0": 437,
    "ie\u031e": 438,
    "ii": 439,
    "ii\u032f": 440,
    "io": 441,
    "iou": 442,
    "io\u02d0": 443,
    "io\u031e": 444,
    "iu": 445,
    "iu\u031c": 446,
    "iu\u032f": 447,
    "i\u00e6": 448,
    "i\u00e6\u0303": 449,
    "i\u00f8": 450,
    "i\u0250": 451,
    "i\u0251": 452,
    "i\u0251u": 453,
    "i\u0254": 454,
    "i\u0254\u033d": 455,
    "i\u0259": 456,
    "i\u0259\u026a": 457,
    "i\u0259\u032f": 458,
    "i\u025b": 459,
    "i\u025bi\u032f": 460,
    "i\u025b\u02d0": 461,
    "i\u025b\u0303": 462,
    "i\u025b\u0320": 463,
    "i\u025c": 464,
    "i\u0268": 465,
    "i\u026a": 466,
    "i\u026a\u032f": 467,
    "i\u028a": 468,
    "i\u028a\u032f": 469,
    "i\u028c": 470,
    "i\u028c\u032f": 471,
    "i\u02b1": 472,
    "i\u02c0": 473,
    "i\u02d0": 474,
    "i\u02d0e": 475,
    "i\u02d0u\u0306": 476,
    "i\u02d0\u0259": 477,
    "i\u02d0\u025b": 478,
    "i\u02d1": 479,
    "i\u02de": 480,
    "i\u02de\u02e4": 481,
    "i\u02de\u02e4\u02d0": 482,
    "i\u02e0": 483,
    "i\u02e4": 484,
    "i\u02e4\u00e6": 485,
    "i\u02e4\u02d0": 486,
    "i\u0303": 487,
    "i\u0303a\u0303": 488,
    "i\u0303e\u0303": 489,
    "i\u0303e\u031e\u0303": 490,
    "i\u0303o\u0303": 491,
    "i\u0303\u0259": 492,
    "i\u0303\u025b\u0303\u02d0": 493,
    "i\u0303\u02d0": 494,
    "i\u0303\u02e0": 495,
    "i\u0306": 496,
    "i\u0308": 497,
    "i\u0318": 498,
    "i\u0319": 499,
    "i\u0319\u02d0": 500,
    "i\u031c": 501,
    "i\u031e": 502,
    "i\u031ea\u0308": 503,
    "i\u031ee\u031e": 504,
    "i\u031e\u02d0": 505,
    "i\u031e\u0303": 506,
    "i\u0320": 507,
    "i\u0324": 508,
    "i\u0324a": 509,
    "i\u0324a\u0324": 510,
    "i\u0324u\u0324": 511,
    "i\u0324\u0259\u0324": 512,
    "i\u0324\u025b\u0324": 513,
    "i\u0324\u02d0": 514,
    "i\u0324\u02d1": 515,
    "i\u0324\u0303\u02d0": 516,
    "i\u0325": 517,
    "i\u0329\u02d0": 518,
    "i\u032f": 519,
    "i\u032fa": 520,
    "i\u032fai": 521,
    "i\u032fai\u032f": 522,
    "i\u032fau": 523,
    "i\u032fau\u032f": 524,
    "i\u032fa\u02d0": 525,
    "i\u032fa\u0303\u02d0": 526,
    "i\u032fe": 527,
    "i\u032fei\u032f": 528,
    "i\u032feu\u032f": 529,
    "i\u032fe\u0303": 530,
    "i\u032fe\u031e": 531,
    "i\u032fo": 532,
    "i\u032foi": 533,
    "i\u032fo\u02d0": 534,
    "i\u032fu": 535,
    "i\u032fua\u02d0": 536,
    "i\u032fui": 537,
    "i\u032fuo": 538,
    "i\u032fu\u02d0": 539,
    "i\u032fu\u0303o": 540,
    "i\u032fy": 541,
    "i\u032f\u00e6": 542,
    "i\u032f\u00e6i": 543,
    "i\u032f\u00f8": 544,
    "i\u032f\u0153": 545,
    "i\u032f\u0153\u031e": 546,
    "i\u032f\u0251": 547,
    "i\u032f\u0252": 548,
    "i\u032f\u0254": 549,
    "i\u032f\u025b": 550,
    "i\u032f\u025bi": 551,
    "i\u032f\u025bi\u032f": 552,
    "i\u032f\u025b\u0303": 553,
    "i\u032f\u028c": 554,
    "i\u032f\u0303": 555,
    "i\u0330": 556,
    "i\u0330u": 557,
    "i\u0330\u02d0": 558,
    "i\u0330\u02d1": 559,
    "i\u0330\u0303": 560,
    "i\u033d": 561,
    "i\u0353": 562,
    "j": 563,
    "j\u0294": 564,
    "j\u02b1": 565,
    "j\u02b7": 566,
    "j\u02c0": 567,
    "j\u02d0": 568,
    "j\u02e4": 569,
    "j\u0303": 570,
    "j\u030a": 571,
    "j\u031f": 572,
    "j\u0324": 573,
    "j\u0325": 574,
    "j\u0325\u02b7": 575,
    "j\u032a": 576,
    "j\u0330": 577,
    "j\u033b": 578,
    "k": 579,
    "kf": 580,
    "kl": 581,
    "km": 582,
    "kp": 583,
    "kpr": 584,
    "kp\u027e": 585,
    "kp\u02b0": 586,
    "kp\u02b2": 587,
    "kp\u02b7": 588,
    "kp\u02d0": 589,
    "kp\u02e4": 590,
    "kx": 591,
    "kx\u02b0": 592,
    "kx\u02b0\u02d0": 593,
    "kx\u02b7": 594,
    "kx\u02b7\u02b0": 595,
    "kx\u02bc": 596,
    "kx\u02bc\u02d0": 597,
    "kx\u02d0": 598,
    "k\u014b": 599,
    "k\u01c0": 600,
    "k\u01c0h": 601,
    "k\u01c0kx\u02bc": 602,
    "k\u01c0x": 603,
    "k\u01c0x\u02bc": 604,
    "k\u01c0\u0294": 605,
    "k\u01c0\u02b0": 606,
    "k\u01c0\u02b0\u02bc": 607,
    "k\u01c0\u02b7": 608,
    "k\u01c0\u02b7\u02b0": 609,
    "k\u01c0\u02bc": 610,
    "k\u01c0\u032a": 611,
    "k\u01c0\u0353": 612,
    "k\u01c0\u0353x": 613,
    "k\u01c0\u0353\u02b0": 614,
    "k\u01c0\u0353\u02c0": 615,
    "k\u01c0\u0353\u02e0\u02b0": 616,
    "k\u01c1": 617,
    "k\u01c1h": 618,
    "k\u01c1kx\u02bc": 619,
    "k\u01c1x": 620,
    "k\u01c1x\u02bc": 621,
    "k\u01c1\u0294": 622,
    "k\u01c1\u02b0": 623,
    "k\u01c1\u02b0\u02bc": 624,
    "k\u01c1\u02bc": 625,
    "k\u01c1\u0353": 626,
    "k\u01c1\u0353x\u02b0": 627,
    "k\u01c1\u0353\u02b0": 628,
    "k\u01c1\u0353\u02c0": 629,
    "k\u01c2": 630,
    "k\u01c2h": 631,
    "k\u01c2kx\u02bc": 632,
    "k\u01c2x": 633,
    "k\u01c2\u0294": 634,
    "k\u01c2\u02b0": 635,
    "k\u01c2\u0353\u02e1": 636,
    "k\u01c2\u0353\u02e1x": 637,
    "k\u01c2\u0353\u02e1\u02b0": 638,
    "k\u01c3": 639,
    "k\u01c3h": 640,
    "k\u01c3kx\u02bc": 641,
    "k\u01c3x": 642,
    "k\u01c3x\u02b0": 643,
    "k\u01c3x\u02bc": 644,
    "k\u01c3\u0294": 645,
    "k\u01c3\u02b0": 646,
    "k\u01c3\u02b0\u02bc": 647,
    "k\u01c3\u02bc": 648,
    "k\u01c3\u0320": 649,
    "k\u01c3\u0320x\u02b0": 650,
    "k\u01c3\u0320\u02b0": 651,
    "k\u01c3\u0320\u02c0": 652,
    "k\u01c3\u032a": 653,
    "k\u01c3\u0353": 654,
    "k\u0261": 655,
    "k\u0266": 656,
    "k\u026c": 657,
    "k\u027e": 658,
    "k\u0298": 659,
    "k\u0298h": 660,
    "k\u0298kx\u02bc": 661,
    "k\u0298x": 662,
    "k\u0298\u0294": 663,
    "k\u0298\u02b0": 664,
    "k\u029f\u0325\u02bc": 665,
    "k\u029f\u0353\u0325\u02bc": 666,
    "k\u02b0": 667,
    "k\u02b0\u02d0": 668,
    "k\u02b2": 669,
    "k\u02b2\u02b0": 670,
    "k\u02b2\u02bc": 671,
    "k\u02b2\u02d0": 672,
    "k\u02b7": 673,
    "k\u02b7\u027e": 674,
    "k\u02b7\u02b0": 675,
    "k\u02b7\u02b0\u02d0": 676,
    "k\u02b7\u02b2": 677,
    "k\u02b7\u02b2\u02b0": 678,
    "k\u02b7\u02b2\u02bc": 679,
    "k\u02b7\u02bc": 680,
    "k\u02b7\u02bc\u02d0": 681,
    "k\u02b7\u02c0": 682,
    "k\u02b7\u02d0": 683,
    "k\u02bc": 684,
    "k\u02bc\u02d0": 685,
    "k\u02c0": 686,
    "k\u02d0": 687,
    "k\u02d1": 688,
    "k\u02de": 689,
    "k\u02de\u02b0": 690,
    "k\u02e4": 691,
    "k\u0319": 692,
    "k\u031f": 693,
    "k\u031f\u02b0": 694,
    "k\u031f\u02b2\u02b0": 695,
    "k\u031f\u02b2\u02bc": 696,
    "k\u0330": 697,
    "k\u0330\u02b7": 698,
    "k\u033b": 699,
    "k\u0348": 700,
    "k\u0348\u02b7": 701,
    "k\u0348\u02d0": 702,
    "k\u0349": 703,
    "k\u0349\u02b7": 704,
    "k\u1da3": 705,
    "k\u203c": 706,
    "k\u203cx": 707,
    "k\u203cx\u02bc": 708,
    "k\u203c\u02b0": 709,
    "k\u203c\u02b0\u02bc": 710,
    "k\u203c\u02bc": 711,
    "l": 712,
    "ld": 713,
    "l\u0266": 714,
    "l\u0294": 715,
    "l\u02b1": 716,
    "l\u02b2": 717,
    "l\u02b2\u02d0": 718,
    "l\u02b2\u02d1": 719,
    "l\u02b7": 720,
    "l\u02b7\u02b2": 721,
    "l\u02bc": 722,
    "l\u02bc\u02d0": 723,
    "l\u02c0": 724,
    "l\u02d0": 725,
    "l\u02d1": 726,
    "l\u02e0": 727,
    "l\u02e4": 728,
    "l\u02e4\u02d0": 729,
    "l\u0303": 730,
    "l\u031f": 731,
    "l\u0320": 732,
    "l\u0320\u02b2": 733,
    "l\u0320\u02de": 734,
    "l\u0320\u0324": 735,
    "l\u0324": 736,
    "l\u0325": 737,
    "l\u0325\u02b2": 738,
    "l\u0325\u02b2\u02d0": 739,
    "l\u0325\u02d0": 740,
    "l\u0325\u02e0": 741,
    "l\u0329": 742,
    "l\u032a": 743,
    "l\u032a|l": 744,
    "l\u032a\u02b2": 745,
    "l\u032a\u02b2|l\u02b2": 746,
    "l\u032a\u02b7": 747,
    "l\u032a\u02d0": 748,
    "l\u032a\u02e0": 749,
    "l\u032a\u02e0|l\u02e0": 750,
    "l\u032a\u02e4": 751,
    "l\u032a\u02e4|l\u02e4": 752,
    "l\u032a\u02e4\u02d0": 753,
    "l\u032a\u030a": 754,
    "l\u032a\u0324": 755,
    "l\u032a\u0324|l\u0324": 756,
    "l\u032a\u0325": 757,
    "l\u032a\u0325|l\u0325": 758,
    "l\u032a\u0329": 759,
    "l\u032a\u0330|l\u0330": 760,
    "l\u0330": 761,
    "l\u033a": 762,
    "l\u033b": 763,
    "l\u033b\u02d0": 764,
    "l\u033b\u0330": 765,
    "l\u0348\u02d0": 766,
    "l\u0349": 767,
    "l\u1da3": 768,
    "m": 769,
    "mb": 770,
    "mbv": 771,
    "mbz": 772,
    "mb\u027e": 773,
    "mb\u02b2": 774,
    "mb\u02b7": 775,
    "mb\u02d0": 776,
    "mb\u02e0": 777,
    "mp": 778,
    "mpf": 779,
    "mpf\u02bc": 780,
    "mp\u027e": 781,
    "mp\u02b0": 782,
    "mp\u02b2": 783,
    "mp\u02b7": 784,
    "mp\u02bc": 785,
    "mv": 786,
    "mw": 787,
    "m\u0253": 788,
    "m\u0266": 789,
    "m\u027e": 790,
    "m\u02b1": 791,
    "m\u02b2": 792,
    "m\u02b2\u02d0": 793,
    "m\u02b7": 794,
    "m\u02b7\u02d0": 795,
    "m\u02b7\u02e0": 796,
    "m\u02b7\u02e0\u02d0": 797,
    "m\u02bc": 798,
    "m\u02c0": 799,
    "m\u02d0": 800,
    "m\u02d1": 801,
    "m\u02e0": 802,
    "m\u02e4": 803,
    "m\u02e4\u02d0": 804,
    "m\u0324": 805,
    "m\u0324b\u0324": 806,
    "m\u0324b\u0324v\u0324": 807,
    "m\u0324p\u02b0": 808,
    "m\u0324\u02b1": 809,
    "m\u0325": 810,
    "m\u0325m": 811,
    "m\u0325p": 812,
    "m\u0325\u02b0": 813,
    "m\u0325\u02b2": 814,
    "m\u0325\u02b2\u02d0": 815,
    "m\u0325\u02b7": 816,
    "m\u0325\u02d0": 817,
    "m\u0329": 818,
    "m\u0330": 819,
    "m\u033c": 820,
    "m\u0348\u02d0": 821,
    "m\u0349": 822,
    "n": 823,
    "nb": 824,
    "nd": 825,
    "ndl": 826,
    "ndr": 827,
    "ndz": 828,
    "ndz\u02b2": 829,
    "ndz\u02b7": 830,
    "nd\u027e": 831,
    "nd\u0291": 832,
    "nd\u02b2": 833,
    "nd\u02b7": 834,
    "nd\u02d0": 835,
    "nd\u032a": 836,
    "nd\u0347z\u0347": 837,
    "nh": 838,
    "nl": 839,
    "nr": 840,
    "ns": 841,
    "ns\u027e": 842,
    "ns\u02b0": 843,
    "ns\u02b7": 844,
    "nt": 845,
    "ntl\u02bc": 846,
    "nts": 847,
    "nts\u02b0": 848,
    "nts\u02bc": 849,
    "nt\u0255": 850,
    "nt\u0255\u02b0": 851,
    "nt\u027e": 852,
    "nt\u02b0": 853,
    "nt\u02b7": 854,
    "nt\u02bc": 855,
    "nt\u0347s\u0347\u02b0": 856,
    "nz": 857,
    "nz\u027e": 858,
    "nz\u02b7": 859,
    "n\u00f0": 860,
    "n\u0257": 861,
    "n\u025f": 862,
    "n\u0261": 863,
    "n\u0261\u027e": 864,
    "n\u0266": 865,
    "n\u026c": 866,
    "n\u026e": 867,
    "n\u027e": 868,
    "n\u02b1": 869,
    "n\u02b2": 870,
    "n\u02b2\u02d0": 871,
    "n\u02b2\u02d1": 872,
    "n\u02b7": 873,
    "n\u02b7\u02b2": 874,
    "n\u02bc": 875,
    "n\u02c0": 876,
    "n\u02d0": 877,
    "n\u02d1": 878,
    "n\u02e0": 879,
    "n\u02e4": 880,
    "n\u02e4\u02d0": 881,
    "n\u0320": 882,
    "n\u0320d\u0320": 883,
    "n\u0320d\u0320\u0292": 884,
    "n\u0320d\u0320\u0292\u02b7": 885,
    "n\u0320t\u0320": 886,
    "n\u0320t\u0320\u0283": 887,
    "n\u0320t\u0320\u0283\u027e": 888,
    "n\u0320t\u0320\u0283\u02b0": 889,
    "n\u0320t\u0320\u0283\u02b7": 890,
    "n\u0320t\u0320\u0283\u02bc": 891,
    "n\u0320\u0283": 892,
    "n\u0320\u0283\u02b7": 893,
    "n\u0320\u0292": 894,
    "n\u0320\u02b2": 895,
    "n\u0320\u0324": 896,
    "n\u0320\u0324d\u0320\u0324\u0292": 897,
    "n\u0320\u0325": 898,
    "n\u0320\u0325t\u0320\u0283": 899,
    "n\u0320\u0329d\u0320\u0292": 900,
    "n\u0324": 901,
    "n\u0324d\u0324": 902,
    "n\u0324d\u0324z\u0324": 903,
    "n\u0324d\u0324\u026e\u0324": 904,
    "n\u0324s": 905,
    "n\u0324t\u02b0": 906,
    "n\u0324\u0261\u0324": 907,
    "n\u0324\u02b1": 908,
    "n\u0324\u02b7": 909,
    "n\u0325": 910,
    "n\u0325n": 911,
    "n\u0325\u0283": 912,
    "n\u0325\u02b2": 913,
    "n\u0325\u02b2\u02d0": 914,
    "n\u0325\u02d0": 915,
    "n\u0325\u02e0": 916,
    "n\u0329": 917,
    "n\u032a": 918,
    "n\u032ad\u032a": 919,
    "n\u032ad\u032az\u032a": 920,
    "n\u032ad\u032a|nd": 921,
    "n\u032ad\u032a\u02b2|nd\u02b2": 922,
    "n\u032ad\u032a\u02b7|nd\u02b7": 923,
    "n\u032as\u032a|ns": 924,
    "n\u032at\u032a": 925,
    "n\u032at\u032as\u032a": 926,
    "n\u032at\u032as\u032a|nts": 927,
    "n\u032at\u032as\u032a\u02b0": 928,
    "n\u032at\u032a|nt": 929,
    "n\u032at\u032a\u02b0": 930,
    "n\u032az\u032a": 931,
    "n\u032az\u032a|nz": 932,
    "n\u032a|n": 933,
    "n\u032a\u02b2": 934,
    "n\u032a\u02b2|n\u02b2": 935,
    "n\u032a\u02b7": 936,
    "n\u032a\u02b7|n\u02b7": 937,
    "n\u032a\u02d0": 938,
    "n\u032a\u02d0|n\u02d0": 939,
    "n\u032a\u02e0": 940,
    "n\u032a\u02e4": 941,
    "n\u032a\u030a": 942,
    "n\u032a\u0324": 943,
    "n\u032a\u0324|n\u0324": 944,
    "n\u032a\u0325": 945,
    "n\u032a\u0325|n\u0325": 946,
    "n\u032a\u0329": 947,
    "n\u032a\u0330": 948,
    "n\u032a\u0330|n\u0330": 949,
    "n\u032a\u033a": 950,
    "n\u0330": 951,
    "n\u033a": 952,
    "n\u033b": 953,
    "n\u033b\u02b2": 954,
    "n\u033b\u02d0": 955,
    "n\u0348\u02d0": 956,
    "n\u0349": 957,
    "n\u03b8": 958,
    "o": 959,
    "oa": 960,
    "oa\u0308": 961,
    "oe": 962,
    "oe\u031e": 963,
    "oi": 964,
    "oi\u032f": 965,
    "oo": 966,
    "ou": 967,
    "ou\u0303": 968,
    "ou\u0319": 969,
    "ou\u032f": 970,
    "o\u0254": 971,
    "o\u0258": 972,
    "o\u0259": 973,
    "o\u0259\u026a": 974,
    "o\u025b": 975,
    "o\u026a": 976,
    "o\u026a\u032f": 977,
    "o\u028a": 978,
    "o\u028a\u0303": 979,
    "o\u028a\u032f": 980,
    "o\u028c\u032f": 981,
    "o\u02c0": 982,
    "o\u02d0": 983,
    "o\u02d0u": 984,
    "o\u02d0u\u032f": 985,
    "o\u02d0\u0259": 986,
    "o\u02d1": 987,
    "o\u02de": 988,
    "o\u02e4": 989,
    "o\u02e4\u02d0": 990,
    "o\u0303": 991,
    "o\u0303a\u0303": 992,
    "o\u0303i": 993,
    "o\u0303i\u032f": 994,
    "o\u0303u\u0303": 995,
    "o\u0303\u026a\u032f\u0303": 996,
    "o\u0303\u02d0": 997,
    "o\u0303\u02e4": 998,
    "o\u0306": 999,
    "o\u0306\u0303": 1000,
    "o\u0308": 1001,
    "o\u0318": 1002,
    "o\u0318\u02d0": 1003,
    "o\u0319": 1004,
    "o\u031d": 1005,
    "o\u031e": 1006,
    "o\u031ea": 1007,
    "o\u031ea\u02e4": 1008,
    "o\u031ea\u0308": 1009,
    "o\u031ee\u031e": 1010,
    "o\u031ei": 1011,
    "o\u031ei\u02e4": 1012,
    "o\u031ei\u032f": 1013,
    "o\u031eu": 1014,
    "o\u031e\u02d0": 1015,
    "o\u031e\u02e4": 1016,
    "o\u031e\u02e4\u02d0": 1017,
    "o\u031e\u0303": 1018,
    "o\u031e\u0303a\u0303": 1019,
    "o\u031e\u0303a\u0303\u02e4": 1020,
    "o\u031e\u0303i\u0303": 1021,
    "o\u031e\u0303i\u0303\u02e4": 1022,
    "o\u031e\u0303u\u0303": 1023,
    "o\u031e\u0303\u02d0": 1024,
    "o\u031e\u0303\u02e4": 1025,
    "o\u031e\u0306": 1026,
    "o\u031e\u0308": 1027,
    "o\u031e\u0319": 1028,
    "o\u031e\u031c": 1029,
    "o\u031e\u031c\u02d0": 1030,
    "o\u031e\u0325": 1031,
    "o\u031e\u0330": 1032,
    "o\u031e\u0330\u0303": 1033,
    "o\u031f": 1034,
    "o\u031f\u02d1": 1035,
    "o\u031f\u031e": 1036,
    "o\u0320": 1037,
    "o\u0324": 1038,
    "o\u0324i\u0324": 1039,
    "o\u0324\u02d0": 1040,
    "o\u0324\u02d1": 1041,
    "o\u032f": 1042,
    "o\u032fa\u0308": 1043,
    "o\u0330": 1044,
    "o\u0330\u02d0": 1045,
    "o\u0330\u02d1": 1046,
    "o\u0330\u0303": 1047,
    "o\u1d31": 1048,
    "p": 1049,
    "pf": 1050,
    "pf\u02b0": 1051,
    "pf\u02bc": 1052,
    "pk\u02b0": 1053,
    "pm": 1054,
    "ps": 1055,
    "ps\u02b0": 1056,
    "ps\u02b7": 1057,
    "ps\u02b7\u02b0": 1058,
    "pt": 1059,
    "p\u0266": 1060,
    "p\u0278": 1061,
    "p\u027e": 1062,
    "p\u0283\u02b0": 1063,
    "p\u0283\u02bc": 1064,
    "p\u02b0": 1065,
    "p\u02b0\u02d0": 1066,
    "p\u02b2": 1067,
    "p\u02b2\u02b0": 1068,
    "p\u02b2\u02bc": 1069,
    "p\u02b2\u02d0": 1070,
    "p\u02b7": 1071,
    "p\u02b7\u02b0": 1072,
    "p\u02b7\u02bc": 1073,
    "p\u02b7\u02e0": 1074,
    "p\u02b7\u02e0\u02b0": 1075,
    "p\u02b7\u02e0\u02d0": 1076,
    "p\u02bc": 1077,
    "p\u02bckx\u02bc": 1078,
    "p\u02bc\u02d0": 1079,
    "p\u02c0": 1080,
    "p\u02d0": 1081,
    "p\u02d1": 1082,
    "p\u02de": 1083,
    "p\u02de\u02b0": 1084,
    "p\u02e0": 1085,
    "p\u02e0\u02b0": 1086,
    "p\u02e4": 1087,
    "p\u02e4\u02b0": 1088,
    "p\u0330": 1089,
    "p\u033b": 1090,
    "p\u033c": 1091,
    "p\u0348": 1092,
    "p\u0348\u02d0": 1093,
    "p\u0349": 1094,
    "p\u0349\u02b2": 1095,
    "q": 1096,
    "qm": 1097,
    "qn": 1098,
    "q\u01c0": 1099,
    "q\u01c0\u02bc": 1100,
    "q\u01c1": 1101,
    "q\u01c1\u02bc": 1102,
    "q\u01c2": 1103,
    "q\u01c2\u02bc": 1104,
    "q\u01c3": 1105,
    "q\u01c3\u02bc": 1106,
    "q\u0298": 1107,
    "q\u0298\u02bc": 1108,
    "q\u02b0": 1109,
    "q\u02b2": 1110,
    "q\u02b2\u02b0": 1111,
    "q\u02b2\u02bc": 1112,
    "q\u02b7": 1113,
    "q\u02b7\u02b0": 1114,
    "q\u02b7\u02b2": 1115,
    "q\u02b7\u02b2\u02b0": 1116,
    "q\u02b7\u02b2\u02bc": 1117,
    "q\u02b7\u02bc": 1118,
    "q\u02b7\u02bc\u02d0": 1119,
    "q\u02b7\u02c0": 1120,
    "q\u02b7\u02d0": 1121,
    "q\u02b7\u02e4\u02b0": 1122,
    "q\u02b7\u02e4\u02bc": 1123,
    "q\u02bc": 1124,
    "q\u02bc\u02d0": 1125,
    "q\u02c0": 1126,
    "q\u02d0": 1127,
    "q\u02e4": 1128,
    "q\u02e4\u02b0": 1129,
    "q\u02e4\u02bc": 1130,
    "q\u0330": 1131,
    "q\u0330\u02b7": 1132,
    "q\u033a": 1133,
    "q\u0348": 1134,
    "q\u0348\u02b7": 1135,
    "q\u03c7": 1136,
    "q\u03c7\u02b0": 1137,
    "q\u03c7\u02b0\u02d0": 1138,
    "q\u03c7\u02b7": 1139,
    "q\u03c7\u02b7\u02bc": 1140,
    "q\u03c7\u02b7\u02e4": 1141,
    "q\u03c7\u02b7\u02e4\u02bc": 1142,
    "q\u03c7\u02bc": 1143,
    "q\u03c7\u02bc\u02d0": 1144,
    "q\u03c7\u02d0": 1145,
    "q\u03c7\u02e4": 1146,
    "q\u03c7\u02e4\u02bc": 1147,
    "q\u03c7\u02e4\u02d0": 1148,
    "r": 1149,
    "r\u02b0": 1150,
    "r\u02b1": 1151,
    "r\u02b2": 1152,
    "r\u02b2\u02d0": 1153,
    "r\u02b7": 1154,
    "r\u02bc": 1155,
    "r\u02bc\u02d0": 1156,
    "r\u02c0": 1157,
    "r\u02d0": 1158,
    "r\u02d1": 1159,
    "r\u02e4": 1160,
    "r\u02e4\u02d0": 1161,
    "r\u0303": 1162,
    "r\u031d": 1163,
    "r\u031f": 1164,
    "r\u0320": 1165,
    "r\u0320\u02b2": 1166,
    "r\u0320\u0319": 1167,
    "r\u0324": 1168,
    "r\u0325": 1169,
    "r\u0325\u02b2": 1170,
    "r\u0325\u02b2\u02d0": 1171,
    "r\u0325\u02d0": 1172,
    "r\u0329": 1173,
    "r\u032a": 1174,
    "r\u032a|r": 1175,
    "r\u032a\u02b2": 1176,
    "r\u032a\u02b2|r\u02b2": 1177,
    "r\u032a\u02d0": 1178,
    "r\u032a\u02e0|r\u02e0": 1179,
    "r\u032a\u02e4": 1180,
    "r\u032a\u02e4|r\u02e4": 1181,
    "r\u032a\u02e4\u02d0": 1182,
    "r\u032a\u0325|r\u0325": 1183,
    "r\u032a\u0330|r\u0330": 1184,
    "r\u032a\u0353|r\u0353": 1185,
    "r\u0330": 1186,
    "r\u033a": 1187,
    "r\u033a\u02b2": 1188,
    "r\u033a\u0325": 1189,
    "r\u033a\u0348": 1190,
    "r\u0348\u02d0": 1191,
    "r\u1da3": 1192,
    "s": 1193,
    "st": 1194,
    "s\u027e": 1195,
    "s\u02b0": 1196,
    "s\u02b2": 1197,
    "s\u02b2\u02b0": 1198,
    "s\u02b2\u02d0": 1199,
    "s\u02b2\u02d1": 1200,
    "s\u02b7": 1201,
    "s\u02b7\u02b2": 1202,
    "s\u02bc": 1203,
    "s\u02bc\u02d0": 1204,
    "s\u02c0": 1205,
    "s\u02d0": 1206,
    "s\u02d1": 1207,
    "s\u02e0": 1208,
    "s\u02e4": 1209,
    "s\u02e4\u02d0": 1210,
    "s\u0319\u02e4": 1211,
    "s\u031f": 1212,
    "s\u0320": 1213,
    "s\u0329": 1214,
    "s\u032a": 1215,
    "s\u032a|s": 1216,
    "s\u032a\u02b0|s\u02b0": 1217,
    "s\u032a\u02b2": 1218,
    "s\u032a\u02b2|s\u02b2": 1219,
    "s\u032a\u02b7": 1220,
    "s\u032a\u02b7|s\u02b7": 1221,
    "s\u032a\u02b7\u02b2": 1222,
    "s\u032a\u02b7\u02d0|s\u02b7\u02d0": 1223,
    "s\u032a\u02bc": 1224,
    "s\u032a\u02bc|s\u02bc": 1225,
    "s\u032a\u02c0": 1226,
    "s\u032a\u02d0": 1227,
    "s\u032a\u02d0|s\u02d0": 1228,
    "s\u032a\u02e4": 1229,
    "s\u032a\u02e4|s\u02e4": 1230,
    "s\u032a\u02e4\u02d0": 1231,
    "s\u032a\u033b": 1232,
    "s\u0330": 1233,
    "s\u033a": 1234,
    "s\u033a\u02d0": 1235,
    "s\u033a\u0320": 1236,
    "s\u033b": 1237,
    "s\u033b\u02d0": 1238,
    "s\u033b\u0320": 1239,
    "s\u033b\u03b8": 1240,
    "s\u0347": 1241,
    "s\u0348": 1242,
    "s\u0348\u02d0": 1243,
    "s\u0349": 1244,
    "s\u1da3": 1245,
    "t": 1246,
    "tl": 1247,
    "tl\u02b1": 1248,
    "tn": 1249,
    "tr": 1250,
    "ts": 1251,
    "ts\u0266": 1252,
    "ts\u02b0": 1253,
    "ts\u02b0\u02d0": 1254,
    "ts\u02b2": 1255,
    "ts\u02b2\u02b0": 1256,
    "ts\u02b2\u02d0": 1257,
    "ts\u02b7": 1258,
    "ts\u02b7\u02b0": 1259,
    "ts\u02b7\u02bc": 1260,
    "ts\u02bc": 1261,
    "ts\u02bc\u02d0": 1262,
    "ts\u02c0": 1263,
    "ts\u02d0": 1264,
    "ts\u02e0": 1265,
    "ts\u02e4\u02b0": 1266,
    "ts\u032a": 1267,
    "ts\u0330": 1268,
    "ts\u033a": 1269,
    "ts\u033b": 1270,
    "ts\u0347": 1271,
    "ts\u0347\u02b0": 1272,
    "tx": 1273,
    "tz\u0324\u0325": 1274,
    "t\u0255": 1275,
    "t\u0255\u02b0": 1276,
    "t\u0255\u02b0\u02d0": 1277,
    "t\u0255\u02b7": 1278,
    "t\u0255\u02bc": 1279,
    "t\u0255\u02d0": 1280,
    "t\u0255\u1da3": 1281,
    "t\u0266": 1282,
    "t\u026c": 1283,
    "t\u026c\u02b0": 1284,
    "t\u026c\u02b0\u02d0": 1285,
    "t\u026c\u02b7\u02b0": 1286,
    "t\u026c\u02b7\u02bc": 1287,
    "t\u026c\u02bc": 1288,
    "t\u026c\u02bc\u02d0": 1289,
    "t\u026c\u02d0": 1290,
    "t\u026c\u0330": 1291,
    "t\u027e": 1292,
    "t\u02b0": 1293,
    "t\u02b0\u02bc": 1294,
    "t\u02b0\u02d0": 1295,
    "t\u02b2": 1296,
    "t\u02b2\u02b0": 1297,
    "t\u02b2\u02bc": 1298,
    "t\u02b2\u02d0": 1299,
    "t\u02b2\u02d1": 1300,
    "t\u02b7": 1301,
    "t\u02b7\u02b0": 1302,
    "t\u02b7\u02bc": 1303,
    "t\u02bc": 1304,
    "t\u02bckx\u02bc": 1305,
    "t\u02bc\u02d0": 1306,
    "t\u02c0": 1307,
    "t\u02d0": 1308,
    "t\u02d0s": 1309,
    "t\u02d1": 1310,
    "t\u02e0": 1311,
    "t\u02e4": 1312,
    "t\u02e4\u02d0": 1313,
    "t\u031f": 1314,
    "t\u031fs\u031f": 1315,
    "t\u031f\u0255\u031f": 1316,
    "t\u031f\u0283\u031f": 1317,
    "t\u031f\u02d0\u0255\u031f": 1318,
    "t\u0320": 1319,
    "t\u0320n\u0320": 1320,
    "t\u0320s\u0320\u02b2\u02b0": 1321,
    "t\u0320\u0283": 1322,
    "t\u0320\u0283x": 1323,
    "t\u0320\u0283\u027e": 1324,
    "t\u0320\u0283\u02b0": 1325,
    "t\u0320\u0283\u02b0\u02d0": 1326,
    "t\u0320\u0283\u02b2": 1327,
    "t\u0320\u0283\u02b2\u02b0": 1328,
    "t\u0320\u0283\u02b2\u02d0": 1329,
    "t\u0320\u0283\u02b7": 1330,
    "t\u0320\u0283\u02b7\u02b0": 1331,
    "t\u0320\u0283\u02b7\u02bc": 1332,
    "t\u0320\u0283\u02b7\u02d0": 1333,
    "t\u0320\u0283\u02bc": 1334,
    "t\u0320\u0283\u02bc\u02d0": 1335,
    "t\u0320\u0283\u02c0": 1336,
    "t\u0320\u0283\u02d0": 1337,
    "t\u0320\u0283\u02e0": 1338,
    "t\u0320\u0283\u02e4": 1339,
    "t\u0320\u0283\u02e4\u02b0": 1340,
    "t\u0320\u0283\u02e4\u02bc": 1341,
    "t\u0320\u0283\u0330": 1342,
    "t\u0320\u0283\u033a": 1343,
    "t\u0320\u0283\u033a\u02b0": 1344,
    "t\u0320\u0283\u0349": 1345,
    "t\u0320\u0286": 1346,
    "t\u0320\u0286\u02b0": 1347,
    "t\u0320\u0286\u02b7": 1348,
    "t\u0320\u0286\u02b7\u02b0": 1349,
    "t\u0320\u0286\u02b7\u02bc": 1350,
    "t\u0320\u02b0": 1351,
    "t\u0320\u02b2": 1352,
    "t\u0320\u02d0\u0283": 1353,
    "t\u0320\u0348\u0283": 1354,
    "t\u0320\u0348\u0283\u02b7": 1355,
    "t\u0320\u0348\u0283\u02d0": 1356,
    "t\u0320\u0349\u0283": 1357,
    "t\u032a": 1358,
    "t\u032an\u032a": 1359,
    "t\u032as": 1360,
    "t\u032as\u032a": 1361,
    "t\u032as\u032a|ts": 1362,
    "t\u032as\u032a\u0266|ts\u0266": 1363,
    "t\u032as\u032a\u02b0": 1364,
    "t\u032as\u032a\u02b0|ts\u02b0": 1365,
    "t\u032as\u032a\u02b2": 1366,
    "t\u032as\u032a\u02b2|ts\u02b2": 1367,
    "t\u032as\u032a\u02b2\u02b0": 1368,
    "t\u032as\u032a\u02b2\u02bc": 1369,
    "t\u032as\u032a\u02b7": 1370,
    "t\u032as\u032a\u02b7\u02b0": 1371,
    "t\u032as\u032a\u02b7\u02b0|ts\u02b7\u02b0": 1372,
    "t\u032as\u032a\u02b7\u02b2": 1373,
    "t\u032as\u032a\u02b7\u02b2\u02b0": 1374,
    "t\u032as\u032a\u02b7\u02b2\u02bc": 1375,
    "t\u032as\u032a\u02b7\u02bc": 1376,
    "t\u032as\u032a\u02b7\u02bc|ts\u02b7\u02bc": 1377,
    "t\u032as\u032a\u02b7\u02d0|ts\u02b7\u02d0": 1378,
    "t\u032as\u032a\u02bc": 1379,
    "t\u032as\u032a\u02bc|ts\u02bc": 1380,
    "t\u032as\u032a\u02bc\u02d0|ts\u02bc\u02d0": 1381,
    "t\u032as\u032a\u02c0|ts\u02c0": 1382,
    "t\u032as\u032a\u02d0": 1383,
    "t\u032as\u032a\u02d0|ts\u02d0": 1384,
    "t\u032ax": 1385,
    "t\u032a|t": 1386,
    "t\u032a\u0266": 1387,
    "t\u032a\u0266|t\u0266": 1388,
    "t\u032a\u026c": 1389,
    "t\u032a\u026c\u02bc": 1390,
    "t\u032a\u026c\u032a": 1391,
    "t\u032a\u026c\u032a|t\u026c": 1392,
    "t\u032a\u026c\u032a\u02b0": 1393,
    "t\u032a\u026c\u032a\u02b0|t\u026c\u02b0": 1394,
    "t\u032a\u026c\u032a\u02b7\u02b0|t\u026c\u02b7\u02b0": 1395,
    "t\u032a\u026c\u032a\u02b7\u02bc|t\u026c\u02b7\u02bc": 1396,
    "t\u032a\u026c\u032a\u02bc": 1397,
    "t\u032a\u026c\u032a\u02bc|t\u026c\u02bc": 1398,
    "t\u032a\u026c\u032a\u02bc\u02d0|t\u026c\u02bc\u02d0": 1399,
    "t\u032a\u026c\u032a\u02c0|t\u026c\u02c0": 1400,
    "t\u032a\u026c\u032a\u02d0|t\u026c\u02d0": 1401,
    "t\u032a\u0283|t\u0320\u0283": 1402,
    "t\u032a\u0299": 1403,
    "t\u032a\u02b0": 1404,
    "t\u032a\u02b0|t\u02b0": 1405,
    "t\u032a\u02b0\u02d0": 1406,
    "t\u032a\u02b2": 1407,
    "t\u032a\u02b2|t\u02b2": 1408,
    "t\u032a\u02b2\u02b0": 1409,
    "t\u032a\u02b2\u02b0|t\u02b2\u02b0": 1410,
    "t\u032a\u02b2\u02bc": 1411,
    "t\u032a\u02b7": 1412,
    "t\u032a\u02b7|t\u02b7": 1413,
    "t\u032a\u02b7\u02b0": 1414,
    "t\u032a\u02b7\u02b0|t\u02b7\u02b0": 1415,
    "t\u032a\u02b7\u02b2": 1416,
    "t\u032a\u02b7\u02b2\u02b0": 1417,
    "t\u032a\u02b7\u02b2\u02bc": 1418,
    "t\u032a\u02b7\u02bc": 1419,
    "t\u032a\u02bc": 1420,
    "t\u032a\u02bckx\u02bc": 1421,
    "t\u032a\u02bc|t\u02bc": 1422,
    "t\u032a\u02bc\u02d0": 1423,
    "t\u032a\u02c0": 1424,
    "t\u032a\u02c0|t\u02c0": 1425,
    "t\u032a\u02d0": 1426,
    "t\u032a\u02d0|t\u02d0": 1427,
    "t\u032a\u02e0": 1428,
    "t\u032a\u02e0\u02b0": 1429,
    "t\u032a\u02e0\u02b0|t\u02e0\u02b0": 1430,
    "t\u032a\u02e4": 1431,
    "t\u032a\u02e4|t\u02e4": 1432,
    "t\u032a\u02e4\u02b0": 1433,
    "t\u032a\u02e4\u02bc": 1434,
    "t\u032a\u02e4\u02d0": 1435,
    "t\u032a\u0319\u02e4": 1436,
    "t\u032a\u0330": 1437,
    "t\u032a\u033a": 1438,
    "t\u032a\u033b": 1439,
    "t\u032a\u033bs\u032a\u033b": 1440,
    "t\u032a\u0348": 1441,
    "t\u032a\u0349": 1442,
    "t\u032a\u03b8": 1443,
    "t\u032a\u03b8\u02b0": 1444,
    "t\u032a\u03b8\u02bc": 1445,
    "t\u032a\u03b8\u032a": 1446,
    "t\u0330": 1447,
    "t\u0330s\u0330": 1448,
    "t\u033a": 1449,
    "t\u033as\u033a": 1450,
    "t\u033as\u033a\u02b0": 1451,
    "t\u033as\u033a\u02bc": 1452,
    "t\u033as\u033a\u02d0": 1453,
    "t\u033a\u0255\u033a": 1454,
    "t\u033a\u0255\u033a\u02bc": 1455,
    "t\u033a\u0283\u033a": 1456,
    "t\u033a\u0283\u033a\u02b7": 1457,
    "t\u033a\u02b0": 1458,
    "t\u033a\u02bc": 1459,
    "t\u033a\u02d0": 1460,
    "t\u033a\u0348": 1461,
    "t\u033a\u0349": 1462,
    "t\u033b": 1463,
    "t\u033bs\u032a\u033b": 1464,
    "t\u033bs\u033b": 1465,
    "t\u033bs\u033b\u02b0": 1466,
    "t\u033bs\u033b\u02bc": 1467,
    "t\u033bs\u033b\u02d0": 1468,
    "t\u033b\u0255\u033b": 1469,
    "t\u033b\u0255\u033b\u02b0": 1470,
    "t\u033b\u0283\u033b": 1471,
    "t\u033b\u02b0": 1472,
    "t\u033b\u02b0\u02d0": 1473,
    "t\u033b\u02b2": 1474,
    "t\u033b\u02bc": 1475,
    "t\u033b\u02d0": 1476,
    "t\u0347s\u0347": 1477,
    "t\u0347s\u0347\u02b0": 1478,
    "t\u0348": 1479,
    "t\u0348s": 1480,
    "t\u0348s\u02b7": 1481,
    "t\u0348\u02d0": 1482,
    "t\u0349": 1483,
    "t\u0349s": 1484,
    "t\u0349\u0255\u0349": 1485,
    "t\u0349\u02b2": 1486,
    "u": 1487,
    "ua": 1488,
    "uai": 1489,
    "ua\u02d0": 1490,
    "ua\u0303": 1491,
    "ua\u0303\u02d0": 1492,
    "ua\u0308": 1493,
    "ua\u031f": 1494,
    "ue": 1495,
    "uei": 1496,
    "uei\u032f": 1497,
    "ue\u0303": 1498,
    "ue\u031e": 1499,
    "ui": 1500,
    "uie": 1501,
    "ui\u025b": 1502,
    "ui\u032f": 1503,
    "uo": 1504,
    "uo\u02d0": 1505,
    "uo\u031e": 1506,
    "uu\u032f": 1507,
    "uy": 1508,
    "u\u00e6": 1509,
    "u\u0153": 1510,
    "u\u0250": 1511,
    "u\u0251": 1512,
    "u\u0251i": 1513,
    "u\u0251\u02de": 1514,
    "u\u0251\u0303": 1515,
    "u\u0254": 1516,
    "u\u0254\u02d0": 1517,
    "u\u0259": 1518,
    "u\u0259i": 1519,
    "u\u0259\u032f": 1520,
    "u\u025b": 1521,
    "u\u025b\u0303": 1522,
    "u\u025c": 1523,
    "u\u0268": 1524,
    "u\u026a": 1525,
    "u\u026a\u032f": 1526,
    "u\u028a\u032f": 1527,
    "u\u028c": 1528,
    "u\u028c\u032f": 1529,
    "u\u02b1": 1530,
    "u\u02c0": 1531,
    "u\u02d0": 1532,
    "u\u02d0a": 1533,
    "u\u02d0e": 1534,
    "u\u02d0i\u0306": 1535,
    "u\u02d0\u0259": 1536,
    "u\u02d0\u028c": 1537,
    "u\u02d1": 1538,
    "u\u02de": 1539,
    "u\u02de\u02e4": 1540,
    "u\u02de\u02e4\u02d0": 1541,
    "u\u02e4": 1542,
    "u\u02e4\u02d0": 1543,
    "u\u0303": 1544,
    "u\u0303a\u0303": 1545,
    "u\u0303i": 1546,
    "u\u0303i\u0303": 1547,
    "u\u0303o": 1548,
    "u\u0303o\u02d0": 1549,
    "u\u0303\u0254\u0303\u02d0": 1550,
    "u\u0303\u0259": 1551,
    "u\u0303\u026a\u032f\u0303": 1552,
    "u\u0303\u02d0": 1553,
    "u\u0303\u02e4": 1554,
    "u\u0306": 1555,
    "u\u0306\u0303": 1556,
    "u\u0308": 1557,
    "u\u0308\u02d0": 1558,
    "u\u0318": 1559,
    "u\u0319": 1560,
    "u\u031c": 1561,
    "u\u031e": 1562,
    "u\u031e\u02d0": 1563,
    "u\u031e\u02d1": 1564,
    "u\u031f": 1565,
    "u\u0320": 1566,
    "u\u0320u": 1567,
    "u\u0324": 1568,
    "u\u0324a": 1569,
    "u\u0324a\u0324": 1570,
    "u\u0324i\u0324": 1571,
    "u\u0324\u0259\u0324": 1572,
    "u\u0324\u02d0": 1573,
    "u\u0324\u02d1": 1574,
    "u\u0324\u0303\u02d0": 1575,
    "u\u0325": 1576,
    "u\u032f": 1577,
    "u\u032fa": 1578,
    "u\u032fai": 1579,
    "u\u032fai\u032f": 1580,
    "u\u032fa\u02d0": 1581,
    "u\u032fa\u0303": 1582,
    "u\u032fe": 1583,
    "u\u032fei\u032f": 1584,
    "u\u032feu\u032f": 1585,
    "u\u032fi": 1586,
    "u\u032fo": 1587,
    "u\u032fo\u02d0": 1588,
    "u\u032fo\u0303": 1589,
    "u\u032fo\u0303\u02d0": 1590,
    "u\u032f\u00e6i": 1591,
    "u\u032f\u0251": 1592,
    "u\u032f\u0254": 1593,
    "u\u032f\u0254\u02d0": 1594,
    "u\u032f\u0254\u0303": 1595,
    "u\u032f\u0259": 1596,
    "u\u032f\u0259\u0303": 1597,
    "u\u032f\u025b": 1598,
    "u\u032f\u025bi": 1599,
    "u\u032f\u025bi\u032f": 1600,
    "u\u032f\u025b\u0303": 1601,
    "u\u032f\u0303": 1602,
    "u\u0330": 1603,
    "u\u0330\u02d0": 1604,
    "u\u0330\u0303": 1605,
    "u\u033di": 1606,
    "u\u0353": 1607,
    "u\u1d31": 1608,
    "v": 1609,
    "v\u027e": 1610,
    "v\u02b1": 1611,
    "v\u02b2": 1612,
    "v\u02b7": 1613,
    "v\u02d0": 1614,
    "v\u02e0": 1615,
    "v\u02e4": 1616,
    "v\u0303": 1617,
    "v\u0324": 1618,
    "v\u0325": 1619,
    "v\u0329": 1620,
    "v\u033c": 1621,
    "w": 1622,
    "w\u02b1": 1623,
    "w\u02b2": 1624,
    "w\u02bc": 1625,
    "w\u02c0": 1626,
    "w\u02d0": 1627,
    "w\u02de": 1628,
    "w\u02e4": 1629,
    "w\u0303": 1630,
    "w\u0308": 1631,
    "w\u031c": 1632,
    "w\u031c\u02b2": 1633,
    "w\u031e": 1634,
    "w\u0324": 1635,
    "w\u0325": 1636,
    "w\u0330": 1637,
    "x": 1638,
    "xh": 1639,
    "xk": 1640,
    "x\u0280\u0325": 1641,
    "x\u02b0": 1642,
    "x\u02b2": 1643,
    "x\u02b2\u02d0": 1644,
    "x\u02b7": 1645,
    "x\u02b7\u02bc": 1646,
    "x\u02b7\u02d0": 1647,
    "x\u02bc": 1648,
    "x\u02d0": 1649,
    "x\u031f\u02b2": 1650,
    "x\u0320": 1651,
    "x\u0325": 1652,
    "x\u0348": 1653,
    "x\u0348\u02b7": 1654,
    "x\u0348\u02d0": 1655,
    "x\u0349": 1656,
    "y": 1657,
    "ya": 1658,
    "ye": 1659,
    "yi": 1660,
    "yia": 1661,
    "yi\u0303": 1662,
    "yi\u032f": 1663,
    "yo": 1664,
    "yu": 1665,
    "yu\u032f": 1666,
    "y\u00e6": 1667,
    "y\u00f8": 1668,
    "y\u00f8\u031e": 1669,
    "y\u0153": 1670,
    "y\u0153\u02d0": 1671,
    "y\u0259": 1672,
    "y\u0259\u032f": 1673,
    "y\u025b": 1674,
    "y\u025c": 1675,
    "y\u028c\u032f": 1676,
    "y\u02bc": 1677,
    "y\u02d0": 1678,
    "y\u02d0\u0259": 1679,
    "y\u02d1": 1680,
    "y\u0303": 1681,
    "y\u0303\u0153": 1682,
    "y\u0303\u0153\u02d0": 1683,
    "y\u0303\u02d0": 1684,
    "y\u0306": 1685,
    "y\u031e": 1686,
    "y\u0320": 1687,
    "y\u0324": 1688,
    "y\u032f\u00f8": 1689,
    "y\u0330": 1690,
    "y\u0330\u02d0": 1691,
    "z": 1692,
    "z\u027e": 1693,
    "z\u02b2": 1694,
    "z\u02b2\u02d0": 1695,
    "z\u02b7": 1696,
    "z\u02c0": 1697,
    "z\u02d0": 1698,
    "z\u02e0": 1699,
    "z\u02e4": 1700,
    "z\u02e4\u02d0": 1701,
    "z\u031e\u0329": 1702,
    "z\u031e\u0329\u02e0": 1703,
    "z\u031e\u0329\u0303\u02e0": 1704,
    "z\u031f": 1705,
    "z\u0320": 1706,
    "z\u0324": 1707,
    "z\u0325": 1708,
    "z\u0329": 1709,
    "z\u032a": 1710,
    "z\u032a|z": 1711,
    "z\u032a\u02b2": 1712,
    "z\u032a\u02b2|z\u02b2": 1713,
    "z\u032a\u02b7": 1714,
    "z\u032a\u02b7|z\u02b7": 1715,
    "z\u032a\u02d0": 1716,
    "z\u032a\u02e4": 1717,
    "z\u032a\u02e4|z\u02e4": 1718,
    "z\u032a\u02e4\u02d0": 1719,
    "z\u032a\u033b": 1720,
    "z\u032a\u0347|z\u0347": 1721,
    "z\u033a": 1722,
    "z\u033b": 1723,
    "z\u033b\u02d0": 1724,
    "z\u0347": 1725,
    "z\u0348\u02d0": 1726,
    "\u00e6": 1727,
    "\u00e6e": 1728,
    "\u00e6e\u032f": 1729,
    "\u00e6e\u032f\u0303": 1730,
    "\u00e6i": 1731,
    "\u00e6i\u032f": 1732,
    "\u00e6o": 1733,
    "\u00e6u": 1734,
    "\u00e6u\u032f": 1735,
    "\u00e6\u0254": 1736,
    "\u00e6\u025b": 1737,
    "\u00e6\u026a": 1738,
    "\u00e6\u026a\u032f": 1739,
    "\u00e6\u0289": 1740,
    "\u00e6\u028c\u032f": 1741,
    "\u00e6\u02d0": 1742,
    "\u00e6\u02d0i": 1743,
    "\u00e6\u02d0\u026a": 1744,
    "\u00e6\u02d0\u028a": 1745,
    "\u00e6\u02d1": 1746,
    "\u00e6\u02e4": 1747,
    "\u00e6\u0303": 1748,
    "\u00e6\u0303\u026a\u032f\u0303": 1749,
    "\u00e6\u0303\u02d0": 1750,
    "\u00e6\u031e\u0303": 1751,
    "\u00e6\u0324": 1752,
    "\u00e6\u0324\u02d0": 1753,
    "\u00e6\u0330": 1754,
    "\u00e7": 1755,
    "\u00e7\u02b0": 1756,
    "\u00e7\u02b2": 1757,
    "\u00e7\u02b7": 1758,
    "\u00e7\u02d0": 1759,
    "\u00e7\u031f": 1760,
    "\u00f0": 1761,
    "\u00f0\u02b2": 1762,
    "\u00f0\u02bc": 1763,
    "\u00f0\u02d0": 1764,
    "\u00f0\u02e0": 1765,
    "\u00f0\u02e4": 1766,
    "\u00f0\u031e": 1767,
    "\u00f0\u032a": 1768,
    "\u00f0\u032a\u0319\u02e4": 1769,
    "\u00f0\u032a\u033a": 1770,
    "\u00f0\u033a\u031e": 1771,
    "\u00f0\u0347\u02e0": 1772,
    "\u00f0\u0349": 1773,
    "\u00f8": 1774,
    "\u00f8u": 1775,
    "\u00f8u\u032f": 1776,
    "\u00f8y": 1777,
    "\u00f8y\u032f": 1778,
    "\u00f8\u0258": 1779,
    "\u00f8\u0259": 1780,
    "\u00f8\u026a": 1781,
    "\u00f8\u026a\u032f": 1782,
    "\u00f8\u028c\u032f": 1783,
    "\u00f8\u02d0": 1784,
    "\u00f8\u02d0y\u032f": 1785,
    "\u00f8\u02d1": 1786,
    "\u00f8\u0303": 1787,
    "\u00f8\u0303\u02d0": 1788,
    "\u00f8\u0306": 1789,
    "\u00f8\u031e": 1790,
    "\u00f8\u031e\u02d0": 1791,
    "\u00f8\u031e\u02e4": 1792,
    "\u00f8\u031e\u031c": 1793,
    "\u00f8\u031e\u031c\u02d0": 1794,
    "\u00f8\u0320": 1795,
    "\u00f8\u0320\u031e": 1796,
    "\u00f8\u0324": 1797,
    "\u00f8\u0330": 1798,
    "\u0127": 1799,
    "\u0127\u02b7": 1800,
    "\u0127\u02d0": 1801,
    "\u0127\u0303\u02b2": 1802,
    "\u0127\u0348\u02d0": 1803,
    "\u014b": 1804,
    "\u014bb": 1805,
    "\u014bh": 1806,
    "\u014bh\u02b2": 1807,
    "\u014bh\u02b7": 1808,
    "\u014bh\u1da3": 1809,
    "\u014bk": 1810,
    "\u014bkx": 1811,
    "\u014bk\u027e": 1812,
    "\u014bk\u02b0": 1813,
    "\u014bk\u02b2": 1814,
    "\u014bk\u02b7": 1815,
    "\u014bk\u02bc": 1816,
    "\u014bm": 1817,
    "\u014bmkp": 1818,
    "\u014bmkp\u027e": 1819,
    "\u014bm\u0261b": 1820,
    "\u014bm\u02b2": 1821,
    "\u014bm\u02b7": 1822,
    "\u014bm\u02e4": 1823,
    "\u014bx\u02b0": 1824,
    "\u014b\u01c0": 1825,
    "\u014b\u01c0\u02b1": 1826,
    "\u014b\u01c0\u0353": 1827,
    "\u014b\u01c1": 1828,
    "\u014b\u01c1\u02bc": 1829,
    "\u014b\u01c1\u0353": 1830,
    "\u014b\u01c2": 1831,
    "\u014b\u01c2\u0353\u02e1": 1832,
    "\u014b\u01c3": 1833,
    "\u014b\u01c3\u02b1": 1834,
    "\u014b\u01c3\u02bc": 1835,
    "\u014b\u01c3\u0320": 1836,
    "\u014b\u0261": 1837,
    "\u014b\u0261mb": 1838,
    "\u014b\u0261\u02b2": 1839,
    "\u014b\u0261\u02b7": 1840,
    "\u014b\u0261\u02d0": 1841,
    "\u014b\u0261\u031f": 1842,
    "\u014b\u0263": 1843,
    "\u014b\u0263\u02b2": 1844,
    "\u014b\u0263\u02b7": 1845,
    "\u014b\u0263\u1da3": 1846,
    "\u014b\u027e": 1847,
    "\u014b\u0298": 1848,
    "\u014b\u02b0": 1849,
    "\u014b\u02b1": 1850,
    "\u014b\u02b2": 1851,
    "\u014b\u02b2\u02d0": 1852,
    "\u014b\u02b7": 1853,
    "\u014b\u02b7\u02b2": 1854,
    "\u014b\u02b7\u02d0": 1855,
    "\u014b\u02c0": 1856,
    "\u014b\u02d0": 1857,
    "\u014b\u02d1": 1858,
    "\u014b\u02e4": 1859,
    "\u014b\u030a": 1860,
    "\u014b\u030a\u01c0": 1861,
    "\u014b\u030a\u01c1": 1862,
    "\u014b\u030a\u01c2": 1863,
    "\u014b\u030a\u01c3": 1864,
    "\u014b\u030a\u0298": 1865,
    "\u014b\u031e": 1866,
    "\u014b\u031f": 1867,
    "\u014b\u0324": 1868,
    "\u014b\u0324k\u02b0": 1869,
    "\u014b\u0324\u01c0": 1870,
    "\u014b\u0324\u01c0\u0353": 1871,
    "\u014b\u0324\u01c1": 1872,
    "\u014b\u0324\u01c2": 1873,
    "\u014b\u0324\u01c2\u0353\u02e1": 1874,
    "\u014b\u0324\u01c3": 1875,
    "\u014b\u0324\u0261\u01c3": 1876,
    "\u014b\u0324\u0261\u0324": 1877,
    "\u014b\u0324\u02b1": 1878,
    "\u014b\u0325": 1879,
    "\u014b\u0325m\u0325": 1880,
    "\u014b\u0325\u014b": 1881,
    "\u014b\u0325\u01c0\u0353x\u02c0": 1882,
    "\u014b\u0325\u01c0\u0353\u02b0": 1883,
    "\u014b\u0325\u01c0\u0353\u02c0": 1884,
    "\u014b\u0325\u01c1\u0353\u02b0": 1885,
    "\u014b\u0325\u01c1\u0353\u02c0": 1886,
    "\u014b\u0325\u01c2x\u02c0": 1887,
    "\u014b\u0325\u01c2\u02b0": 1888,
    "\u014b\u0325\u01c2\u02c0": 1889,
    "\u014b\u0325\u01c2\u0353\u02e1x\u02c0": 1890,
    "\u014b\u0325\u01c2\u0353\u02e1\u02b0": 1891,
    "\u014b\u0325\u01c2\u0353\u02e1\u02c0": 1892,
    "\u014b\u0325\u01c3": 1893,
    "\u014b\u0325\u01c3\u02c0": 1894,
    "\u014b\u0325\u01c3\u02e0\u02c0": 1895,
    "\u014b\u0325\u01c3\u0320\u02b0": 1896,
    "\u014b\u0325\u01c3\u0320\u02c0": 1897,
    "\u014b\u0325\u02b2": 1898,
    "\u014b\u0325\u02b7": 1899,
    "\u014b\u0329": 1900,
    "\u014b\u0329\u02b7": 1901,
    "\u014b\u0330": 1902,
    "\u014b\u203c": 1903,
    "\u014b\u203c\u02b1": 1904,
    "\u0153": 1905,
    "\u0153i": 1906,
    "\u0153i\u032f": 1907,
    "\u0153u": 1908,
    "\u0153u\u032f": 1909,
    "\u0153y": 1910,
    "\u0153y\u02d0": 1911,
    "\u0153\u028f": 1912,
    "\u0153\u02d0": 1913,
    "\u0153\u0303": 1914,
    "\u0153\u0303\u025b\u0303": 1915,
    "\u0153\u0303\u02d0": 1916,
    "\u0153\u031c": 1917,
    "\u0153\u031c\u02d0": 1918,
    "\u0153\u031e": 1919,
    "\u0153\u031e\u025b\u031e": 1920,
    "\u0153\u031e\u028c\u032f": 1921,
    "\u0153\u031e\u02d0": 1922,
    "\u0153\u0320": 1923,
    "\u0153\u0320\u02d0": 1924,
    "\u0153\u0324": 1925,
    "\u0153\u0330\u02d0": 1926,
    "\u0234": 1927,
    "\u0234\u02b7": 1928,
    "\u0235": 1929,
    "\u0235\u02b7": 1930,
    "\u0236": 1931,
    "\u0236\u0235": 1932,
    "\u0236\u02b7": 1933,
    "\u0236\u0348": 1934,
    "\u0236\u0349": 1935,
    "\u0250": 1936,
    "\u0250i": 1937,
    "\u0250i\u032f": 1938,
    "\u0250u": 1939,
    "\u0250\u026a": 1940,
    "\u0250\u0289": 1941,
    "\u0250\u028a": 1942,
    "\u0250\u02d0": 1943,
    "\u0250\u02e4": 1944,
    "\u0250\u0303": 1945,
    "\u0250\u0303i": 1946,
    "\u0250\u0303u\u031c": 1947,
    "\u0250\u0303\u026a\u032f\u0303": 1948,
    "\u0250\u0303\u028a\u032f\u0303": 1949,
    "\u0250\u0306": 1950,
    "\u0250\u031f": 1951,
    "\u0250\u0339\u0306": 1952,
    "\u0251": 1953,
    "\u0251e": 1954,
    "\u0251i": 1955,
    "\u0251i\u032f": 1956,
    "\u0251o": 1957,
    "\u0251u": 1958,
    "\u0251u\u02d0": 1959,
    "\u0251u\u032f": 1960,
    "\u0251y": 1961,
    "\u0251\u026a": 1962,
    "\u0251\u026f": 1963,
    "\u0251\u028a": 1964,
    "\u0251\u028a\u032f": 1965,
    "\u0251\u02d0": 1966,
    "\u0251\u02d0i\u032f": 1967,
    "\u0251\u02d1": 1968,
    "\u0251\u02de": 1969,
    "\u0251\u02e4\u02d0": 1970,
    "\u0251\u0303": 1971,
    "\u0251\u0303i\u0303": 1972,
    "\u0251\u0303o\u0303": 1973,
    "\u0251\u0303\u0254\u0303": 1974,
    "\u0251\u0303\u02d0": 1975,
    "\u0251\u0303\u02de": 1976,
    "\u0251\u0306": 1977,
    "\u0251\u0308": 1978,
    "\u0251\u0308\u02d0": 1979,
    "\u0251\u0319": 1980,
    "\u0251\u031d": 1981,
    "\u0251\u031d\u02d0": 1982,
    "\u0251\u031d\u0339": 1983,
    "\u0251\u031f\u02d0": 1984,
    "\u0251\u031f\u02d1": 1985,
    "\u0251\u031f\u031d": 1986,
    "\u0251\u0324": 1987,
    "\u0251\u0324\u02d0": 1988,
    "\u0251\u0330\u02d0": 1989,
    "\u0252": 1990,
    "\u0252u\u032f": 1991,
    "\u0252\u026f": 1992,
    "\u0252\u02d0": 1993,
    "\u0252\u02d0i\u032f": 1994,
    "\u0252\u0303": 1995,
    "\u0252\u0303\u02d0": 1996,
    "\u0252\u0306": 1997,
    "\u0252\u031d": 1998,
    "\u0252\u0324": 1999,
    "\u0253": 2000,
    "\u0253\u02b2": 2001,
    "\u0253\u02b7": 2002,
    "\u0253\u02d0": 2003,
    "\u0253\u0325": 2004,
    "\u0253\u0325\u02d0": 2005,
    "\u0254": 2006,
    "\u0254a": 2007,
    "\u0254a\u02d0": 2008,
    "\u0254e": 2009,
    "\u0254i": 2010,
    "\u0254i\u032f": 2011,
    "\u0254o": 2012,
    "\u0254o\u032f": 2013,
    "\u0254o\u032f\u0303": 2014,
    "\u0254u": 2015,
    "\u0254u\u02d0": 2016,
    "\u0254u\u032f": 2017,
    "\u0254y": 2018,
    "\u0254y\u032f\u02d0": 2019,
    "\u0254\u0259": 2020,
    "\u0254\u025b": 2021,
    "\u0254\u026a": 2022,
    "\u0254\u026a\u032f": 2023,
    "\u0254\u028a": 2024,
    "\u0254\u028a\u032f": 2025,
    "\u0254\u028f": 2026,
    "\u0254\u02d0": 2027,
    "\u0254\u02d0i\u0306": 2028,
    "\u0254\u02d0\u0259": 2029,
    "\u0254\u02d1": 2030,
    "\u0254\u02e4": 2031,
    "\u0254\u02e4\u02d0": 2032,
    "\u0254\u0303": 2033,
    "\u0254\u0303i\u0303": 2034,
    "\u0254\u0303\u028a\u032f\u0303": 2035,
    "\u0254\u0303\u02d0": 2036,
    "\u0254\u0303\u02e4\u02d0": 2037,
    "\u0254\u0306": 2038,
    "\u0254\u0318\u02d0": 2039,
    "\u0254\u0319": 2040,
    "\u0254\u0319\u02d0": 2041,
    "\u0254\u031c": 2042,
    "\u0254\u031c\u02d0": 2043,
    "\u0254\u031c\u0303\u02d0": 2044,
    "\u0254\u031d": 2045,
    "\u0254\u031d\u02d0": 2046,
    "\u0254\u031e": 2047,
    "\u0254\u031e\u02d0": 2048,
    "\u0254\u031e\u0303": 2049,
    "\u0254\u031e\u0303\u02d0": 2050,
    "\u0254\u031f\u031c": 2051,
    "\u0254\u031f\u031c\u02d0": 2052,
    "\u0254\u031f\u031c\u0303\u02d0": 2053,
    "\u0254\u031f\u031c\u0330": 2054,
    "\u0254\u0324": 2055,
    "\u0254\u0324i\u0324": 2056,
    "\u0254\u0324\u02d0": 2057,
    "\u0254\u0324\u02d1": 2058,
    "\u0254\u0324\u0303\u02d0": 2059,
    "\u0254\u032f": 2060,
    "\u0254\u0330": 2061,
    "\u0254\u0330\u02d0": 2062,
    "\u0254\u0330\u02d1": 2063,
    "\u0254\u033d": 2064,
    "\u0254\u033di": 2065,
    "\u0255": 2066,
    "\u0255\u02b0": 2067,
    "\u0255\u02bc": 2068,
    "\u0255\u02d0": 2069,
    "\u0255\u031f": 2070,
    "\u0255\u031f\u02d0": 2071,
    "\u0255\u1da3": 2072,
    "\u0256": 2073,
    "\u0256r": 2074,
    "\u0256r\u0320": 2075,
    "\u0256r\u0320\u0353": 2076,
    "\u0256\u0266": 2077,
    "\u0256\u0273": 2078,
    "\u0256\u027d": 2079,
    "\u0256\u0290": 2080,
    "\u0256\u0290\u02b7": 2081,
    "\u0256\u02b1": 2082,
    "\u0256\u02d0": 2083,
    "\u0256\u0324": 2084,
    "\u0256\u0324\u02d0": 2085,
    "\u0256\u0325\u0290\u0325": 2086,
    "\u0256\u0330": 2087,
    "\u0256\u033b\u0290\u033b": 2088,
    "\u0256\u207f": 2089,
    "\u0257": 2090,
    "\u0257\u0292": 2091,
    "\u0257\u02b1": 2092,
    "\u0257\u02b2": 2093,
    "\u0257\u02b7": 2094,
    "\u0257\u02d0": 2095,
    "\u0257\u0320": 2096,
    "\u0257\u0325": 2097,
    "\u0257\u032a": 2098,
    "\u0257\u032a|\u0257": 2099,
    "\u0258": 2100,
    "\u0258i": 2101,
    "\u0258\u02d0": 2102,
    "\u0258\u0303": 2103,
    "\u0258\u0303\u02d0": 2104,
    "\u0258\u0306": 2105,
    "\u0258\u031f": 2106,
    "\u0258\u0320": 2107,
    "\u0259": 2108,
    "\u0259i": 2109,
    "\u0259i\u0303": 2110,
    "\u0259i\u032f": 2111,
    "\u0259o": 2112,
    "\u0259u": 2113,
    "\u0259u\u0303": 2114,
    "\u0259u\u032f": 2115,
    "\u0259y": 2116,
    "\u0259\u0268": 2117,
    "\u0259\u0268\u0319": 2118,
    "\u0259\u026a": 2119,
    "\u0259\u026aa": 2120,
    "\u0259\u026f": 2121,
    "\u0259\u026f\u0303": 2122,
    "\u0259\u0289": 2123,
    "\u0259\u028a": 2124,
    "\u0259\u028a\u026a": 2125,
    "\u0259\u02d0": 2126,
    "\u0259\u02d1": 2127,
    "\u0259\u02de": 2128,
    "\u0259\u02de\u02d0": 2129,
    "\u0259\u02e4": 2130,
    "\u0259\u0303": 2131,
    "\u0259\u0303i\u0303": 2132,
    "\u0259\u0303u\u0303": 2133,
    "\u0259\u0303\u02d0": 2134,
    "\u0259\u0303\u02de": 2135,
    "\u0259\u0306": 2136,
    "\u0259\u0318\u02d0": 2137,
    "\u0259\u031e\u0306": 2138,
    "\u0259\u031f": 2139,
    "\u0259\u031f\u0306": 2140,
    "\u0259\u0320\u0303": 2141,
    "\u0259\u0324": 2142,
    "\u0259\u0324\u0303\u02d0": 2143,
    "\u0259\u0325": 2144,
    "\u0259\u032f": 2145,
    "\u0259\u0330": 2146,
    "\u0259\u0330\u026f\u0330": 2147,
    "\u0259\u0330\u0303": 2148,
    "\u0259\u0339": 2149,
    "\u025a": 2150,
    "\u025a\u02d0": 2151,
    "\u025b": 2152,
    "\u025ba": 2153,
    "\u025ba\u031f": 2154,
    "\u025be": 2155,
    "\u025bi": 2156,
    "\u025bi\u02d0": 2157,
    "\u025bi\u032f": 2158,
    "\u025bo": 2159,
    "\u025bo\u031e": 2160,
    "\u025bu": 2161,
    "\u025bu\u031c": 2162,
    "\u025bu\u032f": 2163,
    "\u025b\u0250": 2164,
    "\u025b\u0259": 2165,
    "\u025b\u026a": 2166,
    "\u025b\u026a\u032f": 2167,
    "\u025b\u026f": 2168,
    "\u025b\u0289": 2169,
    "\u025b\u028a": 2170,
    "\u025b\u028a\u032f": 2171,
    "\u025b\u02d0": 2172,
    "\u025b\u02d1": 2173,
    "\u025b\u02e0": 2174,
    "\u025b\u0303": 2175,
    "\u025b\u0303u\u0303": 2176,
    "\u025b\u0303\u0254\u0303": 2177,
    "\u025b\u0303\u0259": 2178,
    "\u025b\u0303\u02d0": 2179,
    "\u025b\u0303\u02d0i\u032f": 2180,
    "\u025b\u0306": 2181,
    "\u025b\u0306\u0303": 2182,
    "\u025b\u0318\u02d0": 2183,
    "\u025b\u0319": 2184,
    "\u025b\u0319\u02d0": 2185,
    "\u025b\u0319\u02e0": 2186,
    "\u025b\u031d": 2187,
    "\u025b\u031d\u02d0": 2188,
    "\u025b\u031e": 2189,
    "\u025b\u0320": 2190,
    "\u025b\u0320\u02d0": 2191,
    "\u025b\u0324": 2192,
    "\u025b\u0324i\u0324": 2193,
    "\u025b\u0324\u02d0": 2194,
    "\u025b\u0324\u02d1": 2195,
    "\u025b\u0324\u0303\u02d0": 2196,
    "\u025b\u032f": 2197,
    "\u025b\u032f\u00e6\u02d0": 2198,
    "\u025b\u0330": 2199,
    "\u025b\u0330\u02d0": 2200,
    "\u025b\u0330\u02d1": 2201,
    "\u025b\u0330\u0303": 2202,
    "\u025c": 2203,
    "\u025ci": 2204,
    "\u025ci\u032f": 2205,
    "\u025c\u026a": 2206,
    "\u025c\u026a\u032f": 2207,
    "\u025c\u02d0": 2208,
    "\u025c\u0303": 2209,
    "\u025c\u0339": 2210,
    "\u025c\u0339\u02d0": 2211,
    "\u025e": 2212,
    "\u025ee\u032f": 2213,
    "\u025e\u028a": 2214,
    "\u025e\u028f\u032f": 2215,
    "\u025e\u02d0": 2216,
    "\u025e\u031c": 2217,
    "\u025e\u031c\u02d0": 2218,
    "\u025e\u031c\u0303\u02d0": 2219,
    "\u025e\u031c\u0330": 2220,
    "\u025e\u0320": 2221,
    "\u025e\u0320\u02d0": 2222,
    "\u025e\u0330": 2223,
    "\u025f": 2224,
    "\u025f\u0266": 2225,
    "\u025f\u029d": 2226,
    "\u025f\u029d\u02b7": 2227,
    "\u025f\u029d\u02d0": 2228,
    "\u025f\u029d\u031e": 2229,
    "\u025f\u02b1": 2230,
    "\u025f\u02b2": 2231,
    "\u025f\u02b7": 2232,
    "\u025f\u02d0": 2233,
    "\u025f\u031f": 2234,
    "\u025f\u0324": 2235,
    "\u025f\u0324\u029d": 2236,
    "\u025f\u0325\u029d\u0325": 2237,
    "\u025f\u0330": 2238,
    "\u025f\u0330\u0329": 2239,
    "\u0260": 2240,
    "\u0260\u0253": 2241,
    "\u0260\u02d0": 2242,
    "\u0260\u0325": 2243,
    "\u0260\u0325\u02b2": 2244,
    "\u0260\u0325\u02b7": 2245,
    "\u0261": 2246,
    "\u0261b": 2247,
    "\u0261br": 2248,
    "\u0261b\u027e": 2249,
    "\u0261b\u02b2": 2250,
    "\u0261b\u02b7": 2251,
    "\u0261b\u02d0": 2252,
    "\u0261b\u02e4": 2253,
    "\u0261b\u0329": 2254,
    "\u0261m": 2255,
    "\u0261v": 2256,
    "\u0261\u01c0": 2257,
    "\u0261\u01c0kx\u02bc": 2258,
    "\u0261\u01c0k\u02b0": 2259,
    "\u0261\u01c0x": 2260,
    "\u0261\u01c0x\u02bc": 2261,
    "\u0261\u01c0\u02b1": 2262,
    "\u0261\u01c0\u0353": 2263,
    "\u0261\u01c0\u0353x": 2264,
    "\u0261\u01c1": 2265,
    "\u0261\u01c1kx\u02bc": 2266,
    "\u0261\u01c1k\u02b0": 2267,
    "\u0261\u01c1x": 2268,
    "\u0261\u01c1x\u02bc": 2269,
    "\u0261\u01c1\u0353": 2270,
    "\u0261\u01c2": 2271,
    "\u0261\u01c2kx\u02bc": 2272,
    "\u0261\u01c2k\u02b0": 2273,
    "\u0261\u01c2x": 2274,
    "\u0261\u01c2\u0353\u02e1": 2275,
    "\u0261\u01c2\u0353\u02e1x": 2276,
    "\u0261\u01c3": 2277,
    "\u0261\u01c3kx\u02bc": 2278,
    "\u0261\u01c3k\u02b0": 2279,
    "\u0261\u01c3x": 2280,
    "\u0261\u01c3x\u02bc": 2281,
    "\u0261\u01c3\u02b1": 2282,
    "\u0261\u01c3\u0320": 2283,
    "\u0261\u0253": 2284,
    "\u0261\u0263": 2285,
    "\u0261\u0266": 2286,
    "\u0261\u027e": 2287,
    "\u0261\u0298": 2288,
    "\u0261\u0298kx\u02bc": 2289,
    "\u0261\u0298k\u02b0": 2290,
    "\u0261\u0298x": 2291,
    "\u0261\u02b1": 2292,
    "\u0261\u02b2": 2293,
    "\u0261\u02b2\u02d0": 2294,
    "\u0261\u02b7": 2295,
    "\u0261\u02b7\u02b2": 2296,
    "\u0261\u02b7\u02d0": 2297,
    "\u0261\u02bc": 2298,
    "\u0261\u02bckx\u02bc": 2299,
    "\u0261\u02d0": 2300,
    "\u0261\u02de": 2301,
    "\u0261\u02e1": 2302,
    "\u0261\u030a": 2303,
    "\u0261\u030a\u02b0": 2304,
    "\u0261\u030a\u02b7": 2305,
    "\u0261\u030a\u02d0": 2306,
    "\u0261\u0319": 2307,
    "\u0261\u031f": 2308,
    "\u0261\u031f\u02b2": 2309,
    "\u0261\u0324": 2310,
    "\u0261\u0324\u01c0": 2311,
    "\u0261\u0324\u01c0\u0353": 2312,
    "\u0261\u0324\u01c1": 2313,
    "\u0261\u0324\u01c2": 2314,
    "\u0261\u0324\u01c2\u0353\u02e1": 2315,
    "\u0261\u0324\u01c3": 2316,
    "\u0261\u0324\u02b7": 2317,
    "\u0261\u0324\u02d0": 2318,
    "\u0261\u0324\u0325": 2319,
    "\u0261\u0329": 2320,
    "\u0261\u0329\u02b7": 2321,
    "\u0261\u0330": 2322,
    "\u0261\u0330\u01c0\u0353x": 2323,
    "\u0261\u0330\u01c2x": 2324,
    "\u0261\u0330\u01c2\u0353\u02e1x": 2325,
    "\u0261\u0330\u01c3x": 2326,
    "\u0261\u0348\u02d0": 2327,
    "\u0261\u1da3": 2328,
    "\u0261\u203c": 2329,
    "\u0261\u203cx": 2330,
    "\u0261\u203cx\u02bc": 2331,
    "\u0261\u203c\u02b1": 2332,
    "\u0261\u207f": 2333,
    "\u0262": 2334,
    "\u0262\u01c0": 2335,
    "\u0262\u01c0q\u02b0": 2336,
    "\u0262\u01c1": 2337,
    "\u0262\u01c1q\u02b0": 2338,
    "\u0262\u01c2": 2339,
    "\u0262\u01c3": 2340,
    "\u0262\u01c3q\u02b0": 2341,
    "\u0262\u0281": 2342,
    "\u0262\u0298": 2343,
    "\u0262\u02b1": 2344,
    "\u0262\u02b7": 2345,
    "\u0262\u02b7\u02e4": 2346,
    "\u0262\u02d0": 2347,
    "\u0262\u02e4": 2348,
    "\u0262\u0325": 2349,
    "\u0263": 2350,
    "\u0263v": 2351,
    "\u0263\u02b2": 2352,
    "\u0263\u02b7": 2353,
    "\u0263\u02c0": 2354,
    "\u0263\u02d0": 2355,
    "\u0263\u030a": 2356,
    "\u0263\u031f\u02b2": 2357,
    "\u0263\u0324": 2358,
    "\u0263\u0325": 2359,
    "\u0263\u0329": 2360,
    "\u0263\u0330": 2361,
    "\u0263\u0348\u02d0": 2362,
    "\u0264": 2363,
    "\u0264i": 2364,
    "\u0264\u02d0": 2365,
    "\u0264\u02d1": 2366,
    "\u0264\u02de": 2367,
    "\u0264\u0303": 2368,
    "\u0264\u0303\u02d0": 2369,
    "\u0264\u031d": 2370,
    "\u0264\u031e": 2371,
    "\u0264\u031e\u02d0": 2372,
    "\u0264\u031e\u0303": 2373,
    "\u0264\u031e\u0306": 2374,
    "\u0264\u031f": 2375,
    "\u0264\u031f\u031e\u0303": 2376,
    "\u0264\u031f\u0339": 2377,
    "\u0264\u0324": 2378,
    "\u0264\u0324i\u0324": 2379,
    "\u0264\u0324\u02d0": 2380,
    "\u0264\u032f": 2381,
    "\u0265": 2382,
    "\u0265\u02e4": 2383,
    "\u0265\u0303": 2384,
    "\u0265\u030a": 2385,
    "\u0265\u0325": 2386,
    "\u0266": 2387,
    "\u0266\u02b7": 2388,
    "\u0266\u0324": 2389,
    "\u0267": 2390,
    "\u0268": 2391,
    "\u0268a": 2392,
    "\u0268a\u0320\u0308": 2393,
    "\u0268i": 2394,
    "\u0268i\u032f": 2395,
    "\u0268\u0259": 2396,
    "\u0268\u025b": 2397,
    "\u0268\u02d0": 2398,
    "\u0268\u02d1": 2399,
    "\u0268\u02de": 2400,
    "\u0268\u0303": 2401,
    "\u0268\u0303i\u0303": 2402,
    "\u0268\u0303\u02d0": 2403,
    "\u0268\u0306": 2404,
    "\u0268\u0318": 2405,
    "\u0268\u031c": 2406,
    "\u0268\u031e": 2407,
    "\u0268\u031e\u02d0": 2408,
    "\u0268\u031e\u0303": 2409,
    "\u0268\u031e\u0303\u02d0": 2410,
    "\u0268\u031e\u0330": 2411,
    "\u0268\u0320": 2412,
    "\u0268\u0324": 2413,
    "\u0268\u0325": 2414,
    "\u0268\u0330": 2415,
    "\u0268\u0339": 2416,
    "\u0268\u0339\u02d0": 2417,
    "\u026a": 2418,
    "\u026aa": 2419,
    "\u026aa\u0303": 2420,
    "\u026ae\u031e": 2421,
    "\u026ai": 2422,
    "\u026au": 2423,
    "\u026a\u0259": 2424,
    "\u026a\u025b": 2425,
    "\u026a\u025b\u02d0": 2426,
    "\u026a\u028c": 2427,
    "\u026a\u02d0": 2428,
    "\u026a\u02e0": 2429,
    "\u026a\u02e4": 2430,
    "\u026a\u0303": 2431,
    "\u026a\u0303\u0259\u0303": 2432,
    "\u026a\u0303\u025b": 2433,
    "\u026a\u0303\u025b\u02d0": 2434,
    "\u026a\u0303\u02d0": 2435,
    "\u026a\u0306": 2436,
    "\u026a\u0308": 2437,
    "\u026a\u0308\u02d0": 2438,
    "\u026a\u0319": 2439,
    "\u026a\u0319\u02d0": 2440,
    "\u026a\u0319\u02e0": 2441,
    "\u026a\u031d": 2442,
    "\u026a\u031d\u02d0": 2443,
    "\u026a\u031e": 2444,
    "\u026a\u031e\u0308": 2445,
    "\u026a\u0320": 2446,
    "\u026a\u0324": 2447,
    "\u026a\u032f": 2448,
    "\u026a\u032fa": 2449,
    "\u026a\u032fa\u0308": 2450,
    "\u026a\u032fu\u031e": 2451,
    "\u026a\u032f\u0254": 2452,
    "\u026a\u032f\u025b": 2453,
    "\u026a\u0330": 2454,
    "\u026b": 2455,
    "\u026b\u02d0": 2456,
    "\u026b\u0325": 2457,
    "\u026b\u032a": 2458,
    "\u026b\u033a": 2459,
    "\u026b\u033b": 2460,
    "\u026c": 2461,
    "\u026cl": 2462,
    "\u026c\u029f\u0353\u0325": 2463,
    "\u026c\u02b2": 2464,
    "\u026c\u02b2\u02bc": 2465,
    "\u026c\u02b7": 2466,
    "\u026c\u02bc": 2467,
    "\u026c\u02d0": 2468,
    "\u026c\u02e0": 2469,
    "\u026c\u032a": 2470,
    "\u026c\u032a|\u026c": 2471,
    "\u026c\u032a\u02b2": 2472,
    "\u026c\u032a\u02b2|\u026c\u02b2": 2473,
    "\u026c\u032a\u02b2\u02bc": 2474,
    "\u026c\u032a\u02b7|\u026c\u02b7": 2475,
    "\u026c\u032a\u02b7\u02d0|\u026c\u02b7\u02d0": 2476,
    "\u026c\u032a\u02bc|\u026c\u02bc": 2477,
    "\u026c\u032a\u02d0": 2478,
    "\u026c\u032a\u02d0|\u026c\u02d0": 2479,
    "\u026c\u032a\u033a": 2480,
    "\u026c\u033b": 2481,
    "\u026d": 2482,
    "\u026d\u02b7": 2483,
    "\u026d\u02d0": 2484,
    "\u026d\u031f": 2485,
    "\u026d\u0324": 2486,
    "\u026d\u0325": 2487,
    "\u026d\u0329": 2488,
    "\u026d\u033a": 2489,
    "\u026d\u0353": 2490,
    "\u026e": 2491,
    "\u026e\u02b2": 2492,
    "\u026e\u02bc": 2493,
    "\u026e\u0324": 2494,
    "\u026e\u032a": 2495,
    "\u026e\u032a|\u026e": 2496,
    "\u026e\u032a\u02b2": 2497,
    "\u026e\u033a": 2498,
    "\u026f": 2499,
    "\u026fa": 2500,
    "\u026fi": 2501,
    "\u026fi\u032f": 2502,
    "\u026fo": 2503,
    "\u026f\u0251": 2504,
    "\u026f\u0259": 2505,
    "\u026f\u026a\u032f": 2506,
    "\u026f\u028c": 2507,
    "\u026f\u02d0": 2508,
    "\u026f\u02d1": 2509,
    "\u026f\u0303": 2510,
    "\u026f\u0303\u0259": 2511,
    "\u026f\u0303\u02d0": 2512,
    "\u026f\u0306": 2513,
    "\u026f\u0319": 2514,
    "\u026f\u0319i\u032f": 2515,
    "\u026f\u031d": 2516,
    "\u026f\u031e": 2517,
    "\u026f\u031e\u0306": 2518,
    "\u026f\u031e\u032f": 2519,
    "\u026f\u031f": 2520,
    "\u026f\u0324": 2521,
    "\u026f\u0324a": 2522,
    "\u026f\u0324i\u0324": 2523,
    "\u026f\u0324\u0259\u0324": 2524,
    "\u026f\u0324\u02d0": 2525,
    "\u026f\u032f\u0264\u031e": 2526,
    "\u026f\u0330": 2527,
    "\u026f\u0330\u033d\u02d0": 2528,
    "\u026f\u033d": 2529,
    "\u026f\u033d\u02d0": 2530,
    "\u026f\u0353": 2531,
    "\u0270": 2532,
    "\u0270\u0303": 2533,
    "\u0270\u0330": 2534,
    "\u0271": 2535,
    "\u0271f": 2536,
    "\u0271f\u027e": 2537,
    "\u0271f\u02b2": 2538,
    "\u0271f\u02b7": 2539,
    "\u0271v": 2540,
    "\u0271v\u027e": 2541,
    "\u0271v\u02b2": 2542,
    "\u0271\u00f0": 2543,
    "\u0271\u0324f": 2544,
    "\u0271\u0325f": 2545,
    "\u0272": 2546,
    "\u0272c": 2547,
    "\u0272c\u02b0": 2548,
    "\u0272c\u02b2": 2549,
    "\u0272c\u02bc": 2550,
    "\u0272j": 2551,
    "\u0272\u025f": 2552,
    "\u0272\u025f\u0291": 2553,
    "\u0272\u025f\u029d": 2554,
    "\u0272\u0284": 2555,
    "\u0272\u0292": 2556,
    "\u0272\u02b1": 2557,
    "\u0272\u02b7": 2558,
    "\u0272\u02bc": 2559,
    "\u0272\u02d0": 2560,
    "\u0272\u030a": 2561,
    "\u0272\u031f": 2562,
    "\u0272\u031fd\u0291": 2563,
    "\u0272\u031ft\u0255\u02b0": 2564,
    "\u0272\u031f\u029d\u031f": 2565,
    "\u0272\u031f\u0325": 2566,
    "\u0272\u0320": 2567,
    "\u0272\u0324": 2568,
    "\u0272\u0324c\u02b0": 2569,
    "\u0272\u0324\u025f\u0324": 2570,
    "\u0272\u0324\u02b1": 2571,
    "\u0272\u0325": 2572,
    "\u0272\u0325\u0272": 2573,
    "\u0272\u0329": 2574,
    "\u0272\u0330": 2575,
    "\u0272\u033b": 2576,
    "\u0272\u033b\u031f": 2577,
    "\u0272\u1da3": 2578,
    "\u0273": 2579,
    "\u0273\u0256": 2580,
    "\u0273\u0256r": 2581,
    "\u0273\u0256r\u0320": 2582,
    "\u0273\u0256\u027d": 2583,
    "\u0273\u0256\u0290": 2584,
    "\u0273\u0261": 2585,
    "\u0273\u0261\u02b7": 2586,
    "\u0273\u0266": 2587,
    "\u0273\u0288": 2588,
    "\u0273\u0288r\u0320\u0325": 2589,
    "\u0273\u0288\u027d\u0325\u02b0": 2590,
    "\u0273\u0288\u0282": 2591,
    "\u0273\u0288\u0282\u02b0": 2592,
    "\u0273\u0288\u02b0": 2593,
    "\u0273\u02b1": 2594,
    "\u0273\u02b7": 2595,
    "\u0273\u031f": 2596,
    "\u0273\u0324": 2597,
    "\u0273\u0325": 2598,
    "\u0273\u033a": 2599,
    "\u0274": 2600,
    "\u0274q": 2601,
    "\u0274q\u02b0": 2602,
    "\u0274\u0262": 2603,
    "\u0274\u02d0": 2604,
    "\u0275": 2605,
    "\u0275y": 2606,
    "\u0275\u0259": 2607,
    "\u0275\u02d0": 2608,
    "\u0275\u0303": 2609,
    "\u0275\u0306": 2610,
    "\u0275\u031e": 2611,
    "\u0275\u031e\u02d0": 2612,
    "\u0275\u031e\u0306": 2613,
    "\u0275\u031e\u0330": 2614,
    "\u0275\u031f": 2615,
    "\u0275\u0324": 2616,
    "\u0275\u0324\u02d0": 2617,
    "\u0276": 2618,
    "\u0276\u02d0": 2619,
    "\u0276\u031d": 2620,
    "\u0278": 2621,
    "\u0278\u02b0": 2622,
    "\u0278\u02b2": 2623,
    "\u0278\u02b7": 2624,
    "\u0278\u02b7\u02e0": 2625,
    "\u0278\u02bc": 2626,
    "\u0278\u02d0": 2627,
    "\u0278\u0303": 2628,
    "\u0278\u031e": 2629,
    "\u0279": 2630,
    "\u0279\u02e4": 2631,
    "\u0279\u031d": 2632,
    "\u0279\u0325": 2633,
    "\u0279\u0329": 2634,
    "\u0279\u032a|\u0279": 2635,
    "\u0279\u032a\u0325|\u0279\u0325": 2636,
    "\u0279\u032a\u0329": 2637,
    "\u0279\u032a\u0329\u02e0": 2638,
    "\u0279\u032a\u0330\u0329": 2639,
    "\u0279\u032a\u0339\u0329": 2640,
    "\u0279\u0330\u02e4": 2641,
    "\u0279\u033a": 2642,
    "\u027a": 2643,
    "\u027a\u02b2": 2644,
    "\u027a\u02d0": 2645,
    "\u027a\u0320": 2646,
    "\u027a\u0320\u0330": 2647,
    "\u027a\u0325": 2648,
    "\u027a\u032a|\u027a": 2649,
    "\u027a\u033a\u0320": 2650,
    "\u027b": 2651,
    "\u027b\u02b2": 2652,
    "\u027b\u02b7": 2653,
    "\u027b\u02d0": 2654,
    "\u027b\u030a": 2655,
    "\u027b\u031f": 2656,
    "\u027b\u0329": 2657,
    "\u027b\u0339\u0329": 2658,
    "\u027b\u033a": 2659,
    "\u027d": 2660,
    "\u027d\u02b1": 2661,
    "\u027d\u0303": 2662,
    "\u027d\u030a": 2663,
    "\u027d\u0324": 2664,
    "\u027d\u0329": 2665,
    "\u027e": 2666,
    "\u027e\u02b1": 2667,
    "\u027e\u02b2": 2668,
    "\u027e\u02b7": 2669,
    "\u027e\u02b7\u02b2": 2670,
    "\u027e\u02c0": 2671,
    "\u027e\u02d0": 2672,
    "\u027e\u02e0": 2673,
    "\u027e\u02e4": 2674,
    "\u027e\u0303": 2675,
    "\u027e\u031e": 2676,
    "\u027e\u0320": 2677,
    "\u027e\u0324": 2678,
    "\u027e\u0325": 2679,
    "\u027e\u0325\u02b2": 2680,
    "\u027e\u0325\u02e0": 2681,
    "\u027e\u032a": 2682,
    "\u027e\u032a|\u027e": 2683,
    "\u027e\u032a\u02b2": 2684,
    "\u027e\u032a\u02b2|\u027e\u02b2": 2685,
    "\u027e\u032a\u02e0": 2686,
    "\u027e\u032a\u030a": 2687,
    "\u027e\u032a\u030a\u02b0": 2688,
    "\u027e\u0330": 2689,
    "\u027e\u033a": 2690,
    "\u027e\u033b": 2691,
    "\u027e\u0353": 2692,
    "\u0280": 2693,
    "\u0280\u0281": 2694,
    "\u0281": 2695,
    "\u0281\u02b2": 2696,
    "\u0281\u02b7": 2697,
    "\u0281\u02b7\u02d0": 2698,
    "\u0281\u02b7\u02e4": 2699,
    "\u0281\u02d0": 2700,
    "\u0281\u02e4": 2701,
    "\u0281\u031e": 2702,
    "\u0281\u031e\u02b7": 2703,
    "\u0281\u031e\u0330\u02b7": 2704,
    "\u0282": 2705,
    "\u0282\u02b0": 2706,
    "\u0282\u02bc": 2707,
    "\u0282\u02d0": 2708,
    "\u0282\u033b": 2709,
    "\u0282\u0347": 2710,
    "\u0282\u0349": 2711,
    "\u0283": 2712,
    "\u0283t": 2713,
    "\u0283\u02b0": 2714,
    "\u0283\u02b2": 2715,
    "\u0283\u02b2\u02d0": 2716,
    "\u0283\u02b7": 2717,
    "\u0283\u02b7\u02d0": 2718,
    "\u0283\u02bc": 2719,
    "\u0283\u02bc\u02d0": 2720,
    "\u0283\u02c0": 2721,
    "\u0283\u02d0": 2722,
    "\u0283\u02d1": 2723,
    "\u0283\u02e0": 2724,
    "\u0283\u02e4": 2725,
    "\u0283\u031e": 2726,
    "\u0283\u031e\u02bc": 2727,
    "\u0283\u033a": 2728,
    "\u0283\u0347": 2729,
    "\u0283\u0348": 2730,
    "\u0283\u0348\u02b7": 2731,
    "\u0283\u0348\u02d0": 2732,
    "\u0283\u0349": 2733,
    "\u0284": 2734,
    "\u0284\u0325": 2735,
    "\u0286": 2736,
    "\u0286\u02b7": 2737,
    "\u0286\u02b7\u02bc": 2738,
    "\u0286\u02bc": 2739,
    "\u0288": 2740,
    "\u0288r": 2741,
    "\u0288r\u0320\u0325": 2742,
    "\u0288\u0273": 2743,
    "\u0288\u0279\u0320\u0325": 2744,
    "\u0288\u027d": 2745,
    "\u0288\u027d\u0325": 2746,
    "\u0288\u027d\u0325\u02b0": 2747,
    "\u0288\u0282": 2748,
    "\u0288\u0282\u02b0": 2749,
    "\u0288\u0282\u02b7": 2750,
    "\u0288\u0282\u02bc": 2751,
    "\u0288\u0282\u02d0": 2752,
    "\u0288\u0282\u0347": 2753,
    "\u0288\u02b0": 2754,
    "\u0288\u02b0\u02d0": 2755,
    "\u0288\u02b7": 2756,
    "\u0288\u02bc": 2757,
    "\u0288\u02c0": 2758,
    "\u0288\u02d0": 2759,
    "\u0288\u031f": 2760,
    "\u0288\u033a": 2761,
    "\u0288\u033b\u0282\u033b": 2762,
    "\u0288\u0348": 2763,
    "\u0288\u0349": 2764,
    "\u0289": 2765,
    "\u0289i": 2766,
    "\u0289i\u032f": 2767,
    "\u0289u": 2768,
    "\u0289\u0153\u0320": 2769,
    "\u0289\u0259": 2770,
    "\u0289\u025e\u0320": 2771,
    "\u0289\u02d0": 2772,
    "\u0289\u0303": 2773,
    "\u0289\u0303\u02d0": 2774,
    "\u0289\u0306": 2775,
    "\u0289\u031e": 2776,
    "\u0289\u031f": 2777,
    "\u0289\u031f\u02d0": 2778,
    "\u0289\u0330": 2779,
    "\u028a": 2780,
    "\u028aa": 2781,
    "\u028ae": 2782,
    "\u028ai": 2783,
    "\u028au": 2784,
    "\u028a\u0254": 2785,
    "\u028a\u0259": 2786,
    "\u028a\u026a": 2787,
    "\u028a\u02d0": 2788,
    "\u028a\u02e4": 2789,
    "\u028a\u02e4\u02d0": 2790,
    "\u028a\u0303": 2791,
    "\u028a\u0303\u02d0": 2792,
    "\u028a\u0306": 2793,
    "\u028a\u0308": 2794,
    "\u028a\u0308i": 2795,
    "\u028a\u0308\u02d0": 2796,
    "\u028a\u0319": 2797,
    "\u028a\u0319\u02d0": 2798,
    "\u028a\u031c": 2799,
    "\u028a\u031c\u0308": 2800,
    "\u028a\u031e": 2801,
    "\u028a\u031e\u0308": 2802,
    "\u028a\u031f": 2803,
    "\u028a\u0324": 2804,
    "\u028a\u0324\u02d0": 2805,
    "\u028a\u032f": 2806,
    "\u028a\u032fa\u026a\u032f": 2807,
    "\u028a\u032f\u0250\u0303": 2808,
    "\u028a\u032f\u0254": 2809,
    "\u028a\u0330": 2810,
    "\u028a\u033d": 2811,
    "\u028b": 2812,
    "\u028b\u02b2": 2813,
    "\u028b\u02d0": 2814,
    "\u028b\u0329": 2815,
    "\u028c": 2816,
    "\u028ci": 2817,
    "\u028ci\u032f": 2818,
    "\u028cu": 2819,
    "\u028cy": 2820,
    "\u028c\u0259": 2821,
    "\u028c\u026f": 2822,
    "\u028c\u02d0": 2823,
    "\u028c\u02e4\u02d0": 2824,
    "\u028c\u0303": 2825,
    "\u028c\u0303\u02d0": 2826,
    "\u028c\u0324": 2827,
    "\u028c\u0324\u02d0": 2828,
    "\u028c\u032f": 2829,
    "\u028d": 2830,
    "\u028dw": 2831,
    "\u028d\u02b2": 2832,
    "\u028e": 2833,
    "\u028e\u02b1": 2834,
    "\u028e\u02bc": 2835,
    "\u028e\u02d0": 2836,
    "\u028e\u031f": 2837,
    "\u028e\u031f\u0325": 2838,
    "\u028e\u0325": 2839,
    "\u028e\u033b": 2840,
    "\u028e\u033b\u031f": 2841,
    "\u028f": 2842,
    "\u028fi\u032f": 2843,
    "\u028f\u02d0": 2844,
    "\u028f\u0303": 2845,
    "\u028f\u0303\u02d0": 2846,
    "\u0290": 2847,
    "\u0290\u02b2": 2848,
    "\u0290\u02b7": 2849,
    "\u0290\u0330": 2850,
    "\u0290\u033b": 2851,
    "\u0290\u0347": 2852,
    "\u0291": 2853,
    "\u0291\u02d0": 2854,
    "\u0291\u031f": 2855,
    "\u0291\u1da3": 2856,
    "\u0292": 2857,
    "\u0292\u02b2": 2858,
    "\u0292\u02b2\u02d0": 2859,
    "\u0292\u02b7": 2860,
    "\u0292\u02c0": 2861,
    "\u0292\u02d0": 2862,
    "\u0292\u02e0": 2863,
    "\u0292\u02e4": 2864,
    "\u0292\u02e4\u02d0": 2865,
    "\u0292\u030a": 2866,
    "\u0292\u0324": 2867,
    "\u0292\u0329": 2868,
    "\u0292\u033a": 2869,
    "\u0292\u0347": 2870,
    "\u0292\u0348\u02d0": 2871,
    "\u0293": 2872,
    "\u0293\u02b7": 2873,
    "\u0294": 2874,
    "\u0294j": 2875,
    "\u0294w": 2876,
    "\u0294\u014b\u01c0": 2877,
    "\u0294\u014b\u01c1": 2878,
    "\u0294\u014b\u01c2": 2879,
    "\u0294\u014b\u01c3": 2880,
    "\u0294\u014b\u0298": 2881,
    "\u0294\u027e": 2882,
    "\u0294\u02b2": 2883,
    "\u0294\u02b2\u02d0": 2884,
    "\u0294\u02b7": 2885,
    "\u0294\u02b7\u02bc": 2886,
    "\u0294\u02bc": 2887,
    "\u0294\u02d0": 2888,
    "\u0294\u02e4": 2889,
    "\u0294\u0303": 2890,
    "\u0294\u032c": 2891,
    "\u0295": 2892,
    "\u0295\u02b7": 2893,
    "\u0295\u02b7\u02bc": 2894,
    "\u0295\u02bc": 2895,
    "\u0295\u02d0": 2896,
    "\u0295\u0319": 2897,
    "\u0295\u031d": 2898,
    "\u0295\u0330": 2899,
    "\u0295\u0330\u02b7": 2900,
    "\u0299": 2901,
    "\u029b\u0325": 2902,
    "\u029c": 2903,
    "\u029c\u02b7": 2904,
    "\u029c\u02d0": 2905,
    "\u029d": 2906,
    "\u029d\u02d0": 2907,
    "\u029d\u031f": 2908,
    "\u029f": 2909,
    "\u029f\u0353\u0325": 2910,
    "\u02a1": 2911,
    "\u02a1\u02e4": 2912,
    "\u02a2": 2913,
    "\u02a2\u02b7": 2914,
    "\u02b0c": 2915,
    "\u02b0k": 2916,
    "\u02b0k\u02b0": 2917,
    "\u02b0k\u02b2": 2918,
    "\u02b0k\u02b7": 2919,
    "\u02b0k\u02d0": 2920,
    "\u02b0l\u0325": 2921,
    "\u02b0p": 2922,
    "\u02b0p\u02b0": 2923,
    "\u02b0p\u02b2": 2924,
    "\u02b0p\u02d0": 2925,
    "\u02b0q": 2926,
    "\u02b0q\u02b0": 2927,
    "\u02b0s\u02b0": 2928,
    "\u02b0s\u032a|\u02b0s": 2929,
    "\u02b0t": 2930,
    "\u02b0ts": 2931,
    "\u02b0ts\u02b0": 2932,
    "\u02b0ts\u02b2": 2933,
    "\u02b0ts\u02d0": 2934,
    "\u02b0t\u0255": 2935,
    "\u02b0t\u0255\u02b0": 2936,
    "\u02b0t\u02b0": 2937,
    "\u02b0t\u02b2": 2938,
    "\u02b0t\u02d0": 2939,
    "\u02b0t\u0320\u0283": 2940,
    "\u02b0t\u0320\u0283\u02b0": 2941,
    "\u02b0t\u0320\u0283\u02d0": 2942,
    "\u02b0\u0283": 2943,
    "\u02b0\u0288": 2944,
    "\u02b0\u0288\u0282\u02b0": 2945,
    "\u02b1b": 2946,
    "\u02b1d": 2947,
    "\u02b1dz": 2948,
    "\u02b1d\u0291": 2949,
    "\u02b1j": 2950,
    "\u02b1l": 2951,
    "\u02b1m": 2952,
    "\u02b1n": 2953,
    "\u02b1n\u032a": 2954,
    "\u02b1w": 2955,
    "\u02b1z": 2956,
    "\u02b1\u014b": 2957,
    "\u02b1\u0256": 2958,
    "\u02b1\u025f": 2959,
    "\u02b1\u0261": 2960,
    "\u02b1\u0272": 2961,
    "\u02b1\u027e": 2962,
    "\u02b1\u027e\u032a": 2963,
    "\u02b1\u0290": 2964,
    "\u02b7d": 2965,
    "\u02b7l": 2966,
    "\u02b7m": 2967,
    "\u02b7r": 2968,
    "\u02b7z": 2969,
    "\u02b7\u025f": 2970,
    "\u02b7\u0290": 2971,
    "\u02b7\u0291": 2972,
    "\u02b7\u02b0k": 2973,
    "\u02b7\u02b0s": 2974,
    "\u02b7\u02b0s\u02b0": 2975,
    "\u02b7\u02b0t": 2976,
    "\u02b7\u02b0ts": 2977,
    "\u02b7\u02b0t\u0255": 2978,
    "\u02b7\u02b0\u0255\u02b0": 2979,
    "\u02b7\u02b0\u0282\u02b0": 2980,
    "\u02b7\u02b0\u0288": 2981,
    "\u02bcb": 2982,
    "\u02bcd": 2983,
    "\u02bcj": 2984,
    "\u02bcl": 2985,
    "\u02bcm": 2986,
    "\u02bcn": 2987,
    "\u02bcs": 2988,
    "\u02bcw": 2989,
    "\u02bc\u014b": 2990,
    "\u02bc\u014b\u01c0": 2991,
    "\u02bc\u014b\u01c3": 2992,
    "\u02bc\u0261": 2993,
    "\u02bc\u0263": 2994,
    "\u02bc\u0272": 2995,
    "\u02bc\u0283": 2996,
    "\u02c0b": 2997,
    "\u02c0b\u0349": 2998,
    "\u02c0c": 2999,
    "\u02c0d": 3000,
    "\u02c0d\u0320\u0292": 3001,
    "\u02c0d\u032a": 3002,
    "\u02c0j": 3003,
    "\u02c0j\u0325": 3004,
    "\u02c0j\u0330": 3005,
    "\u02c0k": 3006,
    "\u02c0kp": 3007,
    "\u02c0k\u02b7": 3008,
    "\u02c0l": 3009,
    "\u02c0l\u032a\u0325": 3010,
    "\u02c0m": 3011,
    "\u02c0m\u02d0": 3012,
    "\u02c0m\u0325": 3013,
    "\u02c0n": 3014,
    "\u02c0n\u02d0": 3015,
    "\u02c0n\u032a\u0325": 3016,
    "\u02c0o\u032f": 3017,
    "\u02c0p": 3018,
    "\u02c0q": 3019,
    "\u02c0r": 3020,
    "\u02c0s": 3021,
    "\u02c0t": 3022,
    "\u02c0t\u032a": 3023,
    "\u02c0t\u032as": 3024,
    "\u02c0t\u032a\u026c": 3025,
    "\u02c0w": 3026,
    "\u02c0w\u0325": 3027,
    "\u02c0w\u0330": 3028,
    "\u02c0y": 3029,
    "\u02c0\u014b": 3030,
    "\u02c0\u0256": 3031,
    "\u02c0\u0257": 3032,
    "\u02c0\u025f": 3033,
    "\u02c0\u0261": 3034,
    "\u02c0\u0261b": 3035,
    "\u02c0\u0261\u02b7": 3036,
    "\u02c0\u0272": 3037,
    "\u02c0\u0272\u02d0": 3038,
    "\u02c0\u0283\u02b7": 3039,
    "\u02c0\u028d": 3040,
    "\u02c0\u028d\u02b2": 3041,
    "\u02e5": 3042,
    "\u02e5\u02e6": 3043,
    "\u02e5\u02e7": 3044,
    "\u02e5\u02e7\u02e5": 3045,
    "\u02e5\u02e7\u0330": 3046,
    "\u02e5\u02e8": 3047,
    "\u02e5\u02e8\u02e7": 3048,
    "\u02e5\u02e9": 3049,
    "\u02e5\u02e9\u02e9\u02e5": 3050,
    "\u02e5\u0330": 3051,
    "\u02e6": 3052,
    "\u02e6\u02c0": 3053,
    "\u02e6\u02e5": 3054,
    "\u02e6\u02e5\u02e6": 3055,
    "\u02e6\u02e5\u0330": 3056,
    "\u02e6\u02e6\u02e8": 3057,
    "\u02e6\u02e7": 3058,
    "\u02e6\u02e8": 3059,
    "\u02e6\u02e8\u02e6": 3060,
    "\u02e6\u02e8\u02e8": 3061,
    "\u02e6\u02e9": 3062,
    "\u02e6\u02e9\u02e8": 3063,
    "\u02e6\u0330": 3064,
    "\u02e6\u2193\u02e6": 3065,
    "\u02e7": 3066,
    "\u02e7\u02e5": 3067,
    "\u02e7\u02e5\u02e8": 3068,
    "\u02e7\u02e6": 3069,
    "\u02e7\u02e6\u02e7": 3070,
    "\u02e7\u02e8": 3071,
    "\u02e7\u02e8\u02e4": 3072,
    "\u02e7\u02e8\u02e5": 3073,
    "\u02e7\u02e8\u02e7": 3074,
    "\u02e7\u02e8\u0324": 3075,
    "\u02e7\u02e9": 3076,
    "\u02e7\u02e9\u0324": 3077,
    "\u02e7\u02e9\u0330": 3078,
    "\u02e8": 3079,
    "\u02e8\u02e5": 3080,
    "\u02e8\u02e5\u02e9": 3081,
    "\u02e8\u02e6": 3082,
    "\u02e8\u02e6\u02e6": 3083,
    "\u02e8\u02e6\u02e7": 3084,
    "\u02e8\u02e6\u02e8": 3085,
    "\u02e8\u02e7": 3086,
    "\u02e8\u02e7\u02e8": 3087,
    "\u02e8\u02e7\u02e9": 3088,
    "\u02e8\u02e8\u02e6": 3089,
    "\u02e8\u02e9": 3090,
    "\u02e8\u02e9\u0324": 3091,
    "\u02e9": 3092,
    "\u02e9\u02e5": 3093,
    "\u02e9\u02e7": 3094,
    "\u02e9\u02e7\u02e9": 3095,
    "\u02e9\u02e8": 3096,
    "\u02e9\u0330": 3097,
    "\u03b2": 3098,
    "\u03b2\u02b2": 3099,
    "\u03b2\u02b2\u02d0": 3100,
    "\u03b2\u02b7": 3101,
    "\u03b2\u02d0": 3102,
    "\u03b2\u0303": 3103,
    "\u03b2\u031e": 3104,
    "\u03b2\u031e\u02b2": 3105,
    "\u03b2\u031e\u02d0": 3106,
    "\u03b2\u031e\u02e0": 3107,
    "\u03b8": 3108,
    "\u03b8\u02bc": 3109,
    "\u03b8\u02d0": 3110,
    "\u03b8\u032a": 3111,
    "\u03b8\u0330": 3112,
    "\u03b8\u033b": 3113,
    "\u03c7": 3114,
    "\u03c7\u02b2": 3115,
    "\u03c7\u02b7": 3116,
    "\u03c7\u02b7\u02b2": 3117,
    "\u03c7\u02b7\u02bc": 3118,
    "\u03c7\u02b7\u02d0": 3119,
    "\u03c7\u02b7\u02e4": 3120,
    "\u03c7\u02b7\u02e4\u02d0": 3121,
    "\u03c7\u02bc": 3122,
    "\u03c7\u02bc\u02d0": 3123,
    "\u03c7\u02d0": 3124,
    "\u03c7\u02e4": 3125,
    "\u03c7\u02e4\u02d0": 3126,
    "\u03c7\u0348": 3127,
    "\u03c7\u0348\u02b7": 3128,
    "\u1d05": 3129,
    "\u1d05\u032a": 3130,
    "\u1d05\u032a\u0330": 3131,
    "\u1d91": 3132,
    "\u1d91\u02bc": 3133,
    "\u1d91\u02bc\u02d0": 3134,
    "\u1d91\u02d0": 3135,
    "\u2193": 3136,
    "\u2193\u02e6": 3137,
    "\u2193\u02e6\u02e8": 3138,
    "\u2193\u02e6\u2193\u02e6": 3139,
    "\u2c71": 3140,
    "\u2c71\u031f": 3141
  },
  "id_to_phoneme": {
    "0": "N",
    "1": "R",
    "2": "R\u02b2",
    "3": "R\u032a",
    "4": "R\u032a|R",
    "5": "R\u032a\u0325|R\u0325",
    "6": "R\u032a\u0330|R\u0330",
    "7": "a",
    "8": "ae",
    "9": "ae\u031e",
    "10": "ae\u031e\u02e4",
    "11": "ae\u032f",
    "12": "ai",
    "13": "ai\u032f",
    "14": "ai\u032f\u02d0",
    "15": "ao",
    "16": "ao\u031e",
    "17": "ao\u031e\u02e4",
    "18": "au",
    "19": "au\u02d0",
    "20": "au\u031c",
    "21": "au\u032f",
    "22": "ay",
    "23": "a\u0254",
    "24": "a\u0259",
    "25": "a\u025b",
    "26": "a\u0268",
    "27": "a\u026a",
    "28": "a\u026a\u0303",
    "29": "a\u026a\u032f",
    "30": "a\u026f",
    "31": "a\u026f\u0303",
    "32": "a\u0275\u032f",
    "33": "a\u028a",
    "34": "a\u028a\u026a",
    "35": "a\u028a\u0303",
    "36": "a\u028a\u032f",
    "37": "a\u02b1",
    "38": "a\u02b2",
    "39": "a\u02b2\u02d0",
    "40": "a\u02c0",
    "41": "a\u02d0",
    "42": "a\u02d0i",
    "43": "a\u02d0i\u0306",
    "44": "a\u02d0i\u032f",
    "45": "a\u02d0u",
    "46": "a\u02d0u\u0306",
    "47": "a\u02d0u\u032f",
    "48": "a\u02d0\u026a",
    "49": "a\u02d1",
    "50": "a\u02de",
    "51": "a\u02de\u02d0",
    "52": "a\u02de\u02e4",
    "53": "a\u02e0",
    "54": "a\u02e4",
    "55": "a\u02e4\u02d0",
    "56": "a\u0303",
    "57": "a\u0303e\u031e\u0303\u02e4",
    "58": "a\u0303i",
    "59": "a\u0303i\u0303",
    "60": "a\u0303i\u032f",
    "61": "a\u0303o\u0303",
    "62": "a\u0303o\u031e\u0303\u02e4",
    "63": "a\u0303u\u0303",
    "64": "a\u0303u\u032f",
    "65": "a\u0303u\u032f\u0303",
    "66": "a\u0303\u025b\u0303",
    "67": "a\u0303\u026a\u032f\u02d0",
    "68": "a\u0303\u02d0",
    "69": "a\u0303\u02e4",
    "70": "a\u0303\u02e4\u02d0",
    "71": "a\u0303\u0308",
    "72": "a\u0303\u0308\u02d0",
    "73": "a\u0306",
    "74": "a\u0306\u0303",
    "75": "a\u0308",
    "76": "a\u0308i",
    "77": "a\u0308i\u032f",
    "78": "a\u0308u\u032f",
    "79": "a\u0308u\u033d",
    "80": "a\u0308\u02d0",
    "81": "a\u030a",
    "82": "a\u0319",
    "83": "a\u0319\u02d0",
    "84": "a\u0319\u02e0",
    "85": "a\u031e",
    "86": "a\u031f",
    "87": "a\u031fi",
    "88": "a\u031f\u02d0",
    "89": "a\u031f\u02de",
    "90": "a\u031f\u0303",
    "91": "a\u031f\u0303i\u0303",
    "92": "a\u031f\u0303\u02d0",
    "93": "a\u031f\u0319\u02d0",
    "94": "a\u0320",
    "95": "a\u0320\u02d0",
    "96": "a\u0320\u0308",
    "97": "a\u0320\u0308\u02d0",
    "98": "a\u0324",
    "99": "a\u0324i\u0324",
    "100": "a\u0324u\u0324",
    "101": "a\u0324\u026f\u0324",
    "102": "a\u0324\u02d0",
    "103": "a\u0324\u02d1",
    "104": "a\u0324\u0303",
    "105": "a\u0324\u0303\u0308\u02d0",
    "106": "a\u0324\u0308",
    "107": "a\u0325",
    "108": "a\u0330",
    "109": "a\u0330i\u0330",
    "110": "a\u0330u\u0330",
    "111": "a\u0330\u026a\u0330",
    "112": "a\u0330\u026f\u0330",
    "113": "a\u0330\u02d0",
    "114": "a\u0330\u02d1",
    "115": "a\u0330\u0303",
    "116": "a\u1d31",
    "117": "b",
    "118": "bm",
    "119": "br",
    "120": "bv",
    "121": "bv\u02b7",
    "122": "bz",
    "123": "bz\u02b7",
    "124": "b\u0261",
    "125": "b\u0266",
    "126": "b\u027e",
    "127": "b\u02b1",
    "128": "b\u02b1\u02d0",
    "129": "b\u02b2",
    "130": "b\u02b2\u02d0",
    "131": "b\u02b7",
    "132": "b\u02b7\u02d0",
    "133": "b\u02b7\u02e0",
    "134": "b\u02bc",
    "135": "b\u02c0",
    "136": "b\u02d0",
    "137": "b\u02de",
    "138": "b\u02e0",
    "139": "b\u02e4",
    "140": "b\u02e4\u02d0",
    "141": "b\u0324",
    "142": "b\u0324v\u0324",
    "143": "b\u0324z\u0324",
    "144": "b\u0324\u02b2",
    "145": "b\u0324\u02d0",
    "146": "b\u0324\u0325",
    "147": "b\u0325",
    "148": "b\u0325\u02b0",
    "149": "b\u0325\u02d0",
    "150": "b\u0329",
    "151": "b\u032a",
    "152": "b\u0330",
    "153": "b\u033b",
    "154": "b\u0348",
    "155": "b\u0348\u02d0",
    "156": "b\u0349",
    "157": "b\u03b2",
    "158": "b\u207f",
    "159": "c",
    "160": "cn\u0320",
    "161": "c\u00e7",
    "162": "c\u00e7\u02b0",
    "163": "c\u00e7\u02b7",
    "164": "c\u00e7\u02b7\u02b0",
    "165": "c\u00e7\u02bc",
    "166": "c\u00e7\u02d0",
    "167": "c\u0272",
    "168": "c\u02b0",
    "169": "c\u02b0\u02d0",
    "170": "c\u02b2",
    "171": "c\u02b7",
    "172": "c\u02b7\u02b0",
    "173": "c\u02bc",
    "174": "c\u02bc\u02d0",
    "175": "c\u02c0",
    "176": "c\u02d0",
    "177": "c\u031f",
    "178": "c\u0320",
    "179": "c\u0324",
    "180": "c\u0330",
    "181": "c\u033b",
    "182": "c\u033b\u031f",
    "183": "d",
    "184": "dl",
    "185": "dl\u02b7",
    "186": "dn",
    "187": "dr",
    "188": "dx",
    "189": "dz",
    "190": "dz\u02b1",
    "191": "dz\u02b2",
    "192": "dz\u02b7",
    "193": "dz\u02bc",
    "194": "dz\u02d0",
    "195": "dz\u02e0",
    "196": "dz\u0324",
    "197": "dz\u032a",
    "198": "dz\u033a",
    "199": "dz\u033b",
    "200": "d\u026e",
    "201": "d\u027e",
    "202": "d\u0291",
    "203": "d\u0291\u02b1",
    "204": "d\u0291\u02b1\u02d0",
    "205": "d\u0291\u02d0",
    "206": "d\u0291\u1da3",
    "207": "d\u02b1",
    "208": "d\u02b2",
    "209": "d\u02b7",
    "210": "d\u02b7\u02b2",
    "211": "d\u02bc",
    "212": "d\u02bckx\u02bc",
    "213": "d\u02c0",
    "214": "d\u02d0",
    "215": "d\u02e0",
    "216": "d\u02e4",
    "217": "d\u02e4\u02d0",
    "218": "d\u0319\u02e4",
    "219": "d\u031e",
    "220": "d\u031f",
    "221": "d\u031fz\u031f",
    "222": "d\u031f\u0291\u031f",
    "223": "d\u031f\u0292\u031f",
    "224": "d\u031f\u02d0\u0291\u031f",
    "225": "d\u0320",
    "226": "d\u0320z\u0320\u02b2",
    "227": "d\u0320\u0292",
    "228": "d\u0320\u0292x\u02bc",
    "229": "d\u0320\u0292\u027e",
    "230": "d\u0320\u0292\u02b0",
    "231": "d\u0320\u0292\u02b1",
    "232": "d\u0320\u0292\u02b2",
    "233": "d\u0320\u0292\u02b7",
    "234": "d\u0320\u0292\u02bc",
    "235": "d\u0320\u0292\u02d0",
    "236": "d\u0320\u0292\u02e0",
    "237": "d\u0320\u0292\u0324",
    "238": "d\u0320\u0292\u0324\u02d0",
    "239": "d\u0320\u0293",
    "240": "d\u0320\u0293\u02b7",
    "241": "d\u0320\u02b2",
    "242": "d\u0320\u02d0\u0292",
    "243": "d\u0320\u0324\u0292\u0324",
    "244": "d\u0320\u0330",
    "245": "d\u0320\u0348\u0292",
    "246": "d\u0320\u207f",
    "247": "d\u0324",
    "248": "d\u0324z",
    "249": "d\u0324z\u0324",
    "250": "d\u0324z\u0324\u02d0",
    "251": "d\u0324\u026e\u0324",
    "252": "d\u0324\u0291\u0324",
    "253": "d\u0324\u0292\u0324",
    "254": "d\u0324\u0292\u0324\u02d0",
    "255": "d\u0324\u0325",
    "256": "d\u0325",
    "257": "d\u0325z\u0325",
    "258": "d\u0325z\u0325\u02b2",
    "259": "d\u0325\u0291\u0325",
    "260": "d\u0325\u0292\u030a",
    "261": "d\u0325\u0292\u0325",
    "262": "d\u0325\u02b2",
    "263": "d\u0325\u02d0",
    "264": "d\u0329",
    "265": "d\u032a",
    "266": "d\u032al\u032a",
    "267": "d\u032an\u032a",
    "268": "d\u032ax",
    "269": "d\u032az",
    "270": "d\u032az\u032a",
    "271": "d\u032az\u032a|dz",
    "272": "d\u032az\u032a\u02b2",
    "273": "d\u032az\u032a\u02b2|dz\u02b2",
    "274": "d\u032az\u032a\u02d0",
    "275": "d\u032az\u032a\u0324|dz\u0324",
    "276": "d\u032a|d",
    "277": "d\u032a\u00f0",
    "278": "d\u032a\u00f0\u032a",
    "279": "d\u032a\u0266",
    "280": "d\u032a\u026e\u032a|d\u026e",
    "281": "d\u032a\u0292",
    "282": "d\u032a\u02b1",
    "283": "d\u032a\u02b1\u02d0",
    "284": "d\u032a\u02b2",
    "285": "d\u032a\u02b2|d\u02b2",
    "286": "d\u032a\u02b7|d\u02b7",
    "287": "d\u032a\u02bckx\u02bc",
    "288": "d\u032a\u02d0",
    "289": "d\u032a\u02e0",
    "290": "d\u032a\u02e4",
    "291": "d\u032a\u02e4|d\u02e4",
    "292": "d\u032a\u02e4\u02d0",
    "293": "d\u032a\u031a",
    "294": "d\u032a\u0324",
    "295": "d\u032a\u0324|d\u0324",
    "296": "d\u032a\u0324\u02d0",
    "297": "d\u032a\u0324\u0325",
    "298": "d\u032a\u0325",
    "299": "d\u032a\u0330",
    "300": "d\u032a\u0330|d\u0330",
    "301": "d\u032a\u033a",
    "302": "d\u032a\u033b",
    "303": "d\u032a\u207f",
    "304": "d\u0330",
    "305": "d\u033a",
    "306": "d\u033az\u033a",
    "307": "d\u033az\u033a\u02d0",
    "308": "d\u033a\u0292\u033a",
    "309": "d\u033a\u02d0",
    "310": "d\u033a\u0320\u0292\u033a\u02b7",
    "311": "d\u033a\u0324",
    "312": "d\u033a\u0325",
    "313": "d\u033a\u0325z\u033a\u0325",
    "314": "d\u033b",
    "315": "d\u033bz\u033b",
    "316": "d\u033bz\u033b\u02d0",
    "317": "d\u033b\u0291\u033b",
    "318": "d\u033b\u0292\u033b",
    "319": "d\u033b\u02b2",
    "320": "d\u033b\u02d0",
    "321": "d\u033b\u0324",
    "322": "d\u033b\u0324\u0291\u033b\u0324",
    "323": "d\u0347z\u0347",
    "324": "d\u0348",
    "325": "d\u0348\u02d0",
    "326": "d\u1da3",
    "327": "d\u207f",
    "328": "e",
    "329": "ea",
    "330": "ei",
    "331": "ei\u0303",
    "332": "ei\u0319",
    "333": "ei\u032f",
    "334": "eo",
    "335": "eu",
    "336": "eu\u031c",
    "337": "eu\u032f",
    "338": "e\u0254",
    "339": "e\u0258",
    "340": "e\u0259",
    "341": "e\u0259\u026a",
    "342": "e\u025b",
    "343": "e\u026a",
    "344": "e\u026a\u0303",
    "345": "e\u026a\u032f",
    "346": "e\u028a",
    "347": "e\u028a\u032f",
    "348": "e\u028c\u032f",
    "349": "e\u02b1",
    "350": "e\u02c0",
    "351": "e\u02d0",
    "352": "e\u02d0i\u032f",
    "353": "e\u02d1",
    "354": "e\u02de",
    "355": "e\u02e0",
    "356": "e\u02e4",
    "357": "e\u0303",
    "358": "e\u0303i\u0303",
    "359": "e\u0303i\u032f",
    "360": "e\u0303\u026a\u0303",
    "361": "e\u0303\u026a\u032f\u0303",
    "362": "e\u0303\u02d0",
    "363": "e\u0306",
    "364": "e\u0308",
    "365": "e\u0308\u02d0",
    "366": "e\u0318",
    "367": "e\u0318\u02d0",
    "368": "e\u0319",
    "369": "e\u031d",
    "370": "e\u031e",
    "371": "e\u031ea",
    "372": "e\u031ei",
    "373": "e\u031eo\u031e",
    "374": "e\u031eu",
    "375": "e\u031eu\u032f",
    "376": "e\u031e\u0259",
    "377": "e\u031e\u02d0",
    "378": "e\u031e\u02e4",
    "379": "e\u031e\u0303",
    "380": "e\u031e\u0303i\u0303",
    "381": "e\u031e\u0303u\u0303",
    "382": "e\u031e\u0303\u02d0",
    "383": "e\u031e\u0306",
    "384": "e\u031e\u0308",
    "385": "e\u031e\u0325",
    "386": "e\u031e\u0330",
    "387": "e\u031e\u0330\u0303",
    "388": "e\u0320",
    "389": "e\u0320\u031e",
    "390": "e\u0324",
    "391": "e\u0324\u02d0",
    "392": "e\u0324\u02d1",
    "393": "e\u0325",
    "394": "e\u0325\u02d0",
    "395": "e\u032f",
    "396": "e\u032fa\u0308",
    "397": "e\u0330",
    "398": "e\u0330\u026a\u0330",
    "399": "e\u0330\u02d0",
    "400": "e\u0330\u02d1",
    "401": "e\u0330\u0303",
    "402": "f",
    "403": "f\u027e",
    "404": "f\u0283",
    "405": "f\u02b0",
    "406": "f\u02b2",
    "407": "f\u02b2\u02d0",
    "408": "f\u02b7",
    "409": "f\u02b7\u02d0",
    "410": "f\u02bc",
    "411": "f\u02d0",
    "412": "f\u02d1",
    "413": "f\u02e0",
    "414": "f\u0329",
    "415": "f\u0330",
    "416": "f\u0348\u02d0",
    "417": "f\u0349",
    "418": "h",
    "419": "h\u02b2",
    "420": "h\u02b7",
    "421": "h\u02b7\u02b2",
    "422": "h\u02bc",
    "423": "h\u02c0",
    "424": "h\u02d0",
    "425": "h\u0303",
    "426": "h\u1da3",
    "427": "i",
    "428": "ia",
    "429": "iau",
    "430": "ia\u02d0",
    "431": "ia\u0303",
    "432": "ia\u0308u\u033d",
    "433": "ia\u031f",
    "434": "ie",
    "435": "ie\u02d0",
    "436": "ie\u0303",
    "437": "ie\u0303\u02d0",
    "438": "ie\u031e",
    "439": "ii",
    "440": "ii\u032f",
    "441": "io",
    "442": "iou",
    "443": "io\u02d0",
    "444": "io\u031e",
    "445": "iu",
    "446": "iu\u031c",
    "447": "iu\u032f",
    "448": "i\u00e6",
    "449": "i\u00e6\u0303",
    "450": "i\u00f8",
    "451": "i\u0250",
    "452": "i\u0251",
    "453": "i\u0251u",
    "454": "i\u0254",
    "455": "i\u0254\u033d",
    "456": "i\u0259",
    "457": "i\u0259\u026a",
    "458": "i\u0259\u032f",
    "459": "i\u025b",
    "460": "i\u025bi\u032f",
    "461": "i\u025b\u02d0",
    "462": "i\u025b\u0303",
    "463": "i\u025b\u0320",
    "464": "i\u025c",
    "465": "i\u0268",
    "466": "i\u026a",
    "467": "i\u026a\u032f",
    "468": "i\u028a",
    "469": "i\u028a\u032f",
    "470": "i\u028c",
    "471": "i\u028c\u032f",
    "472": "i\u02b1",
    "473": "i\u02c0",
    "474": "i\u02d0",
    "475": "i\u02d0e",
    "476": "i\u02d0u\u0306",
    "477": "i\u02d0\u0259",
    "478": "i\u02d0\u025b",
    "479": "i\u02d1",
    "480": "i\u02de",
    "481": "i\u02de\u02e4",
    "482": "i\u02de\u02e4\u02d0",
    "483": "i\u02e0",
    "484": "i\u02e4",
    "485": "i\u02e4\u00e6",
    "486": "i\u02e4\u02d0",
    "487": "i\u0303",
    "488": "i\u0303a\u0303",
    "489": "i\u0303e\u0303",
    "490": "i\u0303e\u031e\u0303",
    "491": "i\u0303o\u0303",
    "492": "i\u0303\u0259",
    "493": "i\u0303\u025b\u0303\u02d0",
    "494": "i\u0303\u02d0",
    "495": "i\u0303\u02e0",
    "496": "i\u0306",
    "497": "i\u0308",
    "498": "i\u0318",
    "499": "i\u0319",
    "500": "i\u0319\u02d0",
    "501": "i\u031c",
    "502": "i\u031e",
    "503": "i\u031ea\u0308",
    "504": "i\u031ee\u031e",
    "505": "i\u031e\u02d0",
    "506": "i\u031e\u0303",
    "507": "i\u0320",
    "508": "i\u0324",
    "509": "i\u0324a",
    "510": "i\u0324a\u0324",
    "511": "i\u0324u\u0324",
    "512": "i\u0324\u0259\u0324",
    "513": "i\u0324\u025b\u0324",
    "514": "i\u0324\u02d0",
    "515": "i\u0324\u02d1",
    "516": "i\u0324\u0303\u02d0",
    "517": "i\u0325",
    "518": "i\u0329\u02d0",
    "519": "i\u032f",
    "520": "i\u032fa",
    "521": "i\u032fai",
    "522": "i\u032fai\u032f",
    "523": "i\u032fau",
    "524": "i\u032fau\u032f",
    "525": "i\u032fa\u02d0",
    "526": "i\u032fa\u0303\u02d0",
    "527": "i\u032fe",
    "528": "i\u032fei\u032f",
    "529": "i\u032feu\u032f",
    "530": "i\u032fe\u0303",
    "531": "i\u032fe\u031e",
    "532": "i\u032fo",
    "533": "i\u032foi",
    "534": "i\u032fo\u02d0",
    "535": "i\u032fu",
    "536": "i\u032fua\u02d0",
    "537": "i\u032fui",
    "538": "i\u032fuo",
    "539": "i\u032fu\u02d0",
    "540": "i\u032fu\u0303o",
    "541": "i\u032fy",
    "542": "i\u032f\u00e6",
    "543": "i\u032f\u00e6i",
    "544": "i\u032f\u00f8",
    "545": "i\u032f\u0153",
    "546": "i\u032f\u0153\u031e",
    "547": "i\u032f\u0251",
    "548": "i\u032f\u0252",
    "549": "i\u032f\u0254",
    "550": "i\u032f\u025b",
    "551": "i\u032f\u025bi",
    "552": "i\u032f\u025bi\u032f",
    "553": "i\u032f\u025b\u0303",
    "554": "i\u032f\u028c",
    "555": "i\u032f\u0303",
    "556": "i\u0330",
    "557": "i\u0330u",
    "558": "i\u0330\u02d0",
    "559": "i\u0330\u02d1",
    "560": "i\u0330\u0303",
    "561": "i\u033d",
    "562": "i\u0353",
    "563": "j",
    "564": "j\u0294",
    "565": "j\u02b1",
    "566": "j\u02b7",
    "567": "j\u02c0",
    "568": "j\u02d0",
    "569": "j\u02e4",
    "570": "j\u0303",
    "571": "j\u030a",
    "572": "j\u031f",
    "573": "j\u0324",
    "574": "j\u0325",
    "575": "j\u0325\u02b7",
    "576": "j\u032a",
    "577": "j\u0330",
    "578": "j\u033b",
    "579": "k",
    "580": "kf",
    "581": "kl",
    "582": "km",
    "583": "kp",
    "584": "kpr",
    "585": "kp\u027e",
    "586": "kp\u02b0",
    "587": "kp\u02b2",
    "588": "kp\u02b7",
    "589": "kp\u02d0",
    "590": "kp\u02e4",
    "591": "kx",
    "592": "kx\u02b0",
    "593": "kx\u02b0\u02d0",
    "594": "kx\u02b7",
    "595": "kx\u02b7\u02b0",
    "596": "kx\u02bc",
    "597": "kx\u02bc\u02d0",
    "598": "kx\u02d0",
    "599": "k\u014b",
    "600": "k\u01c0",
    "601": "k\u01c0h",
    "602": "k\u01c0kx\u02bc",
    "603": "k\u01c0x",
    "604": "k\u01c0x\u02bc",
    "605": "k\u01c0\u0294",
    "606": "k\u01c0\u02b0",
    "607": "k\u01c0\u02b0\u02bc",
    "608": "k\u01c0\u02b7",
    "609": "k\u01c0\u02b7\u02b0",
    "610": "k\u01c0\u02bc",
    "611": "k\u01c0\u032a",
    "612": "k\u01c0\u0353",
    "613": "k\u01c0\u0353x",
    "614": "k\u01c0\u0353\u02b0",
    "615": "k\u01c0\u0353\u02c0",
    "616": "k\u01c0\u0353\u02e0\u02b0",
    "617": "k\u01c1",
    "618": "k\u01c1h",
    "619": "k\u01c1kx\u02bc",
    "620": "k\u01c1x",
    "621": "k\u01c1x\u02bc",
    "622": "k\u01c1\u0294",
    "623": "k\u01c1\u02b0",
    "624": "k\u01c1\u02b0\u02bc",
    "625": "k\u01c1\u02bc",
    "626": "k\u01c1\u0353",
    "627": "k\u01c1\u0353x\u02b0",
    "628": "k\u01c1\u0353\u02b0",
    "629": "k\u01c1\u0353\u02c0",
    "630": "k\u01c2",
    "631": "k\u01c2h",
    "632": "k\u01c2kx\u02bc",
    "633": "k\u01c2x",
    "634": "k\u01c2\u0294",
    "635": "k\u01c2\u02b0",
    "636": "k\u01c2\u0353\u02e1",
    "637": "k\u01c2\u0353\u02e1x",
    "638": "k\u01c2\u0353\u02e1\u02b0",
    "639": "k\u01c3",
    "640": "k\u01c3h",
    "641": "k\u01c3kx\u02bc",
    "642": "k\u01c3x",
    "643": "k\u01c3x\u02b0",
    "644": "k\u01c3x\u02bc",
    "645": "k\u01c3\u0294",
    "646": "k\u01c3\u02b0",
    "647": "k\u01c3\u02b0\u02bc",
    "648": "k\u01c3\u02bc",
    "649": "k\u01c3\u0320",
    "650": "k\u01c3\u0320x\u02b0",
    "651": "k\u01c3\u0320\u02b0",
    "652": "k\u01c3\u0320\u02c0",
    "653": "k\u01c3\u032a",
    "654": "k\u01c3\u0353",
    "655": "k\u0261",
    "656": "k\u0266",
    "657": "k\u026c",
    "658": "k\u027e",
    "659": "k\u0298",
    "660": "k\u0298h",
    "661": "k\u0298kx\u02bc",
    "662": "k\u0298x",
    "663": "k\u0298\u0294",
    "664": "k\u0298\u02b0",
    "665": "k\u029f\u0325\u02bc",
    "666": "k\u029f\u0353\u0325\u02bc",
    "667": "k\u02b0",
    "668": "k\u02b0\u02d0",
    "669": "k\u02b2",
    "670": "k\u02b2\u02b0",
    "671": "k\u02b2\u02bc",
    "672": "k\u02b2\u02d0",
    "673": "k\u02b7",
    "674": "k\u02b7\u027e",
    "675": "k\u02b7\u02b0",
    "676": "k\u02b7\u02b0\u02d0",
    "677": "k\u02b7\u02b2",
    "678": "k\u02b7\u02b2\u02b0",
    "679": "k\u02b7\u02b2\u02bc",
    "680": "k\u02b7\u02bc",
    "681": "k\u02b7\u02bc\u02d0",
    "682": "k\u02b7\u02c0",
    "683": "k\u02b7\u02d0",
    "684": "k\u02bc",
    "685": "k\u02bc\u02d0",
    "686": "k\u02c0",
    "687": "k\u02d0",
    "688": "k\u02d1",
    "689": "k\u02de",
    "690": "k\u02de\u02b0",
    "691": "k\u02e4",
    "692": "k\u0319",
    "693": "k\u031f",
    "694": "k\u031f\u02b0",
    "695": "k\u031f\u02b2\u02b0",
    "696": "k\u031f\u02b2\u02bc",
    "697": "k\u0330",
    "698": "k\u0330\u02b7",
    "699": "k\u033b",
    "700": "k\u0348",
    "701": "k\u0348\u02b7",
    "702": "k\u0348\u02d0",
    "703": "k\u0349",
    "704": "k\u0349\u02b7",
    "705": "k\u1da3",
    "706": "k\u203c",
    "707": "k\u203cx",
    "708": "k\u203cx\u02bc",
    "709": "k\u203c\u02b0",
    "710": "k\u203c\u02b0\u02bc",
    "711": "k\u203c\u02bc",
    "712": "l",
    "713": "ld",
    "714": "l\u0266",
    "715": "l\u0294",
    "716": "l\u02b1",
    "717": "l\u02b2",
    "718": "l\u02b2\u02d0",
    "719": "l\u02b2\u02d1",
    "720": "l\u02b7",
    "721": "l\u02b7\u02b2",
    "722": "l\u02bc",
    "723": "l\u02bc\u02d0",
    "724": "l\u02c0",
    "725": "l\u02d0",
    "726": "l\u02d1",
    "727": "l\u02e0",
    "728": "l\u02e4",
    "729": "l\u02e4\u02d0",
    "730": "l\u0303",
    "731": "l\u031f",
    "732": "l\u0320",
    "733": "l\u0320\u02b2",
    "734": "l\u0320\u02de",
    "735": "l\u0320\u0324",
    "736": "l\u0324",
    "737": "l\u0325",
    "738": "l\u0325\u02b2",
    "739": "l\u0325\u02b2\u02d0",
    "740": "l\u0325\u02d0",
    "741": "l\u0325\u02e0",
    "742": "l\u0329",
    "743": "l\u032a",
    "744": "l\u032a|l",
    "745": "l\u032a\u02b2",
    "746": "l\u032a\u02b2|l\u02b2",
    "747": "l\u032a\u02b7",
    "748": "l\u032a\u02d0",
    "749": "l\u032a\u02e0",
    "750": "l\u032a\u02e0|l\u02e0",
    "751": "l\u032a\u02e4",
    "752": "l\u032a\u02e4|l\u02e4",
    "753": "l\u032a\u02e4\u02d0",
    "754": "l\u032a\u030a",
    "755": "l\u032a\u0324",
    "756": "l\u032a\u0324|l\u0324",
    "757": "l\u032a\u0325",
    "758": "l\u032a\u0325|l\u0325",
    "759": "l\u032a\u0329",
    "760": "l\u032a\u0330|l\u0330",
    "761": "l\u0330",
    "762": "l\u033a",
    "763": "l\u033b",
    "764": "l\u033b\u02d0",
    "765": "l\u033b\u0330",
    "766": "l\u0348\u02d0",
    "767": "l\u0349",
    "768": "l\u1da3",
    "769": "m",
    "770": "mb",
    "771": "mbv",
    "772": "mbz",
    "773": "mb\u027e",
    "774": "mb\u02b2",
    "775": "mb\u02b7",
    "776": "mb\u02d0",
    "777": "mb\u02e0",
    "778": "mp",
    "779": "mpf",
    "780": "mpf\u02bc",
    "781": "mp\u027e",
    "782": "mp\u02b0",
    "783": "mp\u02b2",
    "784": "mp\u02b7",
    "785": "mp\u02bc",
    "786": "mv",
    "787": "mw",
    "788": "m\u0253",
    "789": "m\u0266",
    "790": "m\u027e",
    "791": "m\u02b1",
    "792": "m\u02b2",
    "793": "m\u02b2\u02d0",
    "794": "m\u02b7",
    "795": "m\u02b7\u02d0",
    "796": "m\u02b7\u02e0",
    "797": "m\u02b7\u02e0\u02d0",
    "798": "m\u02bc",
    "799": "m\u02c0",
    "800": "m\u02d0",
    "801": "m\u02d1",
    "802": "m\u02e0",
    "803": "m\u02e4",
    "804": "m\u02e4\u02d0",
    "805": "m\u0324",
    "806": "m\u0324b\u0324",
    "807": "m\u0324b\u0324v\u0324",
    "808": "m\u0324p\u02b0",
    "809": "m\u0324\u02b1",
    "810": "m\u0325",
    "811": "m\u0325m",
    "812": "m\u0325p",
    "813": "m\u0325\u02b0",
    "814": "m\u0325\u02b2",
    "815": "m\u0325\u02b2\u02d0",
    "816": "m\u0325\u02b7",
    "817": "m\u0325\u02d0",
    "818": "m\u0329",
    "819": "m\u0330",
    "820": "m\u033c",
    "821": "m\u0348\u02d0",
    "822": "m\u0349",
    "823": "n",
    "824": "nb",
    "825": "nd",
    "826": "ndl",
    "827": "ndr",
    "828": "ndz",
    "829": "ndz\u02b2",
    "830": "ndz\u02b7",
    "831": "nd\u027e",
    "832": "nd\u0291",
    "833": "nd\u02b2",
    "834": "nd\u02b7",
    "835": "nd\u02d0",
    "836": "nd\u032a",
    "837": "nd\u0347z\u0347",
    "838": "nh",
    "839": "nl",
    "840": "nr",
    "841": "ns",
    "842": "ns\u027e",
    "843": "ns\u02b0",
    "844": "ns\u02b7",
    "845": "nt",
    "846": "ntl\u02bc",
    "847": "nts",
    "848": "nts\u02b0",
    "849": "nts\u02bc",
    "850": "nt\u0255",
    "851": "nt\u0255\u02b0",
    "852": "nt\u027e",
    "853": "nt\u02b0",
    "854": "nt\u02b7",
    "855": "nt\u02bc",
    "856": "nt\u0347s\u0347\u02b0",
    "857": "nz",
    "858": "nz\u027e",
    "859": "nz\u02b7",
    "860": "n\u00f0",
    "861": "n\u0257",
    "862": "n\u025f",
    "863": "n\u0261",
    "864": "n\u0261\u027e",
    "865": "n\u0266",
    "866": "n\u026c",
    "867": "n\u026e",
    "868": "n\u027e",
    "869": "n\u02b1",
    "870": "n\u02b2",
    "871": "n\u02b2\u02d0",
    "872": "n\u02b2\u02d1",
    "873": "n\u02b7",
    "874": "n\u02b7\u02b2",
    "875": "n\u02bc",
    "876": "n\u02c0",
    "877": "n\u02d0",
    "878": "n\u02d1",
    "879": "n\u02e0",
    "880": "n\u02e4",
    "881": "n\u02e4\u02d0",
    "882": "n\u0320",
    "883": "n\u0320d\u0320",
    "884": "n\u0320d\u0320\u0292",
    "885": "n\u0320d\u0320\u0292\u02b7",
    "886": "n\u0320t\u0320",
    "887": "n\u0320t\u0320\u0283",
    "888": "n\u0320t\u0320\u0283\u027e",
    "889": "n\u0320t\u0320\u0283\u02b0",
    "890": "n\u0320t\u0320\u0283\u02b7",
    "891": "n\u0320t\u0320\u0283\u02bc",
    "892": "n\u0320\u0283",
    "893": "n\u0320\u0283\u02b7",
    "894": "n\u0320\u0292",
    "895": "n\u0320\u02b2",
    "896": "n\u0320\u0324",
    "897": "n\u0320\u0324d\u0320\u0324\u0292",
    "898": "n\u0320\u0325",
    "899": "n\u0320\u0325t\u0320\u0283",
    "900": "n\u0320\u0329d\u0320\u0292",
    "901": "n\u0324",
    "902": "n\u0324d\u0324",
    "903": "n\u0324d\u0324z\u0324",
    "904": "n\u0324d\u0324\u026e\u0324",
    "905": "n\u0324s",
    "906": "n\u0324t\u02b0",
    "907": "n\u0324\u0261\u0324",
    "908": "n\u0324\u02b1",
    "909": "n\u0324\u02b7",
    "910": "n\u0325",
    "911": "n\u0325n",
    "912": "n\u0325\u0283",
    "913": "n\u0325\u02b2",
    "914": "n\u0325\u02b2\u02d0",
    "915": "n\u0325\u02d0",
    "916": "n\u0325\u02e0",
    "917": "n\u0329",
    "918": "n\u032a",
    "919": "n\u032ad\u032a",
    "920": "n\u032ad\u032az\u032a",
    "921": "n\u032ad\u032a|nd",
    "922": "n\u032ad\u032a\u02b2|nd\u02b2",
    "923": "n\u032ad\u032a\u02b7|nd\u02b7",
    "924": "n\u032as\u032a|ns",
    "925": "n\u032at\u032a",
    "926": "n\u032at\u032as\u032a",
    "927": "n\u032at\u032as\u032a|nts",
    "928": "n\u032at\u032as\u032a\u02b0",
    "929": "n\u032at\u032a|nt",
    "930": "n\u032at\u032a\u02b0",
    "931": "n\u032az\u032a",
    "932": "n\u032az\u032a|nz",
    "933": "n\u032a|n",
    "934": "n\u032a\u02b2",
    "935": "n\u032a\u02b2|n\u02b2",
    "936": "n\u032a\u02b7",
    "937": "n\u032a\u02b7|n\u02b7",
    "938": "n\u032a\u02d0",
    "939": "n\u032a\u02d0|n\u02d0",
    "940": "n\u032a\u02e0",
    "941": "n\u032a\u02e4",
    "942": "n\u032a\u030a",
    "943": "n\u032a\u0324",
    "944": "n\u032a\u0324|n\u0324",
    "945": "n\u032a\u0325",
    "946": "n\u032a\u0325|n\u0325",
    "947": "n\u032a\u0329",
    "948": "n\u032a\u0330",
    "949": "n\u032a\u0330|n\u0330",
    "950": "n\u032a\u033a",
    "951": "n\u0330",
    "952": "n\u033a",
    "953": "n\u033b",
    "954": "n\u033b\u02b2",
    "955": "n\u033b\u02d0",
    "956": "n\u0348\u02d0",
    "957": "n\u0349",
    "958": "n\u03b8",
    "959": "o",
    "960": "oa",
    "961": "oa\u0308",
    "962": "oe",
    "963": "oe\u031e",
    "964": "oi",
    "965": "oi\u032f",
    "966": "oo",
    "967": "ou",
    "968": "ou\u0303",
    "969": "ou\u0319",
    "970": "ou\u032f",
    "971": "o\u0254",
    "972": "o\u0258",
    "973": "o\u0259",
    "974": "o\u0259\u026a",
    "975": "o\u025b",
    "976": "o\u026a",
    "977": "o\u026a\u032f",
    "978": "o\u028a",
    "979": "o\u028a\u0303",
    "980": "o\u028a\u032f",
    "981": "o\u028c\u032f",
    "982": "o\u02c0",
    "983": "o\u02d0",
    "984": "o\u02d0u",
    "985": "o\u02d0u\u032f",
    "986": "o\u02d0\u0259",
    "987": "o\u02d1",
    "988": "o\u02de",
    "989": "o\u02e4",
    "990": "o\u02e4\u02d0",
    "991": "o\u0303",
    "992": "o\u0303a\u0303",
    "993": "o\u0303i",
    "994": "o\u0303i\u032f",
    "995": "o\u0303u\u0303",
    "996": "o\u0303\u026a\u032f\u0303",
    "997": "o\u0303\u02d0",
    "998": "o\u0303\u02e4",
    "999": "o\u0306",
    "1000": "o\u0306\u0303",
    "1001": "o\u0308",
    "1002": "o\u0318",
    "1003": "o\u0318\u02d0",
    "1004": "o\u0319",
    "1005": "o\u031d",
    "1006": "o\u031e",
    "1007": "o\u031ea",
    "1008": "o\u031ea\u02e4",
    "1009": "o\u031ea\u0308",
    "1010": "o\u031ee\u031e",
    "1011": "o\u031ei",
    "1012": "o\u031ei\u02e4",
    "1013": "o\u031ei\u032f",
    "1014": "o\u031eu",
    "1015": "o\u031e\u02d0",
    "1016": "o\u031e\u02e4",
    "1017": "o\u031e\u02e4\u02d0",
    "1018": "o\u031e\u0303",
    "1019": "o\u031e\u0303a\u0303",
    "1020": "o\u031e\u0303a\u0303\u02e4",
    "1021": "o\u031e\u0303i\u0303",
    "1022": "o\u031e\u0303i\u0303\u02e4",
    "1023": "o\u031e\u0303u\u0303",
    "1024": "o\u031e\u0303\u02d0",
    "1025": "o\u031e\u0303\u02e4",
    "1026": "o\u031e\u0306",
    "1027": "o\u031e\u0308",
    "1028": "o\u031e\u0319",
    "1029": "o\u031e\u031c",
    "1030": "o\u031e\u031c\u02d0",
    "1031": "o\u031e\u0325",
    "1032": "o\u031e\u0330",
    "1033": "o\u031e\u0330\u0303",
    "1034": "o\u031f",
    "1035": "o\u031f\u02d1",
    "1036": "o\u031f\u031e",
    "1037": "o\u0320",
    "1038": "o\u0324",
    "1039": "o\u0324i\u0324",
    "1040": "o\u0324\u02d0",
    "1041": "o\u0324\u02d1",
    "1042": "o\u032f",
    "1043": "o\u032fa\u0308",
    "1044": "o\u0330",
    "1045": "o\u0330\u02d0",
    "1046": "o\u0330\u02d1",
    "1047": "o\u0330\u0303",
    "1048": "o\u1d31",
    "1049": "p",
    "1050": "pf",
    "1051": "pf\u02b0",
    "1052": "pf\u02bc",
    "1053": "pk\u02b0",
    "1054": "pm",
    "1055": "ps",
    "1056": "ps\u02b0",
    "1057": "ps\u02b7",
    "1058": "ps\u02b7\u02b0",
    "1059": "pt",
    "1060": "p\u0266",
    "1061": "p\u0278",
    "1062": "p\u027e",
    "1063": "p\u0283\u02b0",
    "1064": "p\u0283\u02bc",
    "1065": "p\u02b0",
    "1066": "p\u02b0\u02d0",
    "1067": "p\u02b2",
    "1068": "p\u02b2\u02b0",
    "1069": "p\u02b2\u02bc",
    "1070": "p\u02b2\u02d0",
    "1071": "p\u02b7",
    "1072": "p\u02b7\u02b0",
    "1073": "p\u02b7\u02bc",
    "1074": "p\u02b7\u02e0",
    "1075": "p\u02b7\u02e0\u02b0",
    "1076": "p\u02b7\u02e0\u02d0",
    "1077": "p\u02bc",
    "1078": "p\u02bckx\u02bc",
    "1079": "p\u02bc\u02d0",
    "1080": "p\u02c0",
    "1081": "p\u02d0",
    "1082": "p\u02d1",
    "1083": "p\u02de",
    "1084": "p\u02de\u02b0",
    "1085": "p\u02e0",
    "1086": "p\u02e0\u02b0",
    "1087": "p\u02e4",
    "1088": "p\u02e4\u02b0",
    "1089": "p\u0330",
    "1090": "p\u033b",
    "1091": "p\u033c",
    "1092": "p\u0348",
    "1093": "p\u0348\u02d0",
    "1094": "p\u0349",
    "1095": "p\u0349\u02b2",
    "1096": "q",
    "1097": "qm",
    "1098": "qn",
    "1099": "q\u01c0",
    "1100": "q\u01c0\u02bc",
    "1101": "q\u01c1",
    "1102": "q\u01c1\u02bc",
    "1103": "q\u01c2",
    "1104": "q\u01c2\u02bc",
    "1105": "q\u01c3",
    "1106": "q\u01c3\u02bc",
    "1107": "q\u0298",
    "1108": "q\u0298\u02bc",
    "1109": "q\u02b0",
    "1110": "q\u02b2",
    "1111": "q\u02b2\u02b0",
    "1112": "q\u02b2\u02bc",
    "1113": "q\u02b7",
    "1114": "q\u02b7\u02b0",
    "1115": "q\u02b7\u02b2",
    "1116": "q\u02b7\u02b2\u02b0",
    "1117": "q\u02b7\u02b2\u02bc",
    "1118": "q\u02b7\u02bc",
    "1119": "q\u02b7\u02bc\u02d0",
    "1120": "q\u02b7\u02c0",
    "1121": "q\u02b7\u02d0",
    "1122": "q\u02b7\u02e4\u02b0",
    "1123": "q\u02b7\u02e4\u02bc",
    "1124": "q\u02bc",
    "1125": "q\u02bc\u02d0",
    "1126": "q\u02c0",
    "1127": "q\u02d0",
    "1128": "q\u02e4",
    "1129": "q\u02e4\u02b0",
    "1130": "q\u02e4\u02bc",
    "1131": "q\u0330",
    "1132": "q\u0330\u02b7",
    "1133": "q\u033a",
    "1134": "q\u0348",
    "1135": "q\u0348\u02b7",
    "1136": "q\u03c7",
    "1137": "q\u03c7\u02b0",
    "1138": "q\u03c7\u02b0\u02d0",
    "1139": "q\u03c7\u02b7",
    "1140": "q\u03c7\u02b7\u02bc",
    "1141": "q\u03c7\u02b7\u02e4",
    "1142": "q\u03c7\u02b7\u02e4\u02bc",
    "1143": "q\u03c7\u02bc",
    "1144": "q\u03c7\u02bc\u02d0",
    "1145": "q\u03c7\u02d0",
    "1146": "q\u03c7\u02e4",
    "1147": "q\u03c7\u02e4\u02bc",
    "1148": "q\u03c7\u02e4\u02d0",
    "1149": "r",
    "1150": "r\u02b0",
    "1151": "r\u02b1",
    "1152": "r\u02b2",
    "1153": "r\u02b2\u02d0",
    "1154": "r\u02b7",
    "1155": "r\u02bc",
    "1156": "r\u02bc\u02d0",
    "1157": "r\u02c0",
    "1158": "r\u02d0",
    "1159": "r\u02d1",
    "1160": "r\u02e4",
    "1161": "r\u02e4\u02d0",
    "1162": "r\u0303",
    "1163": "r\u031d",
    "1164": "r\u031f",
    "1165": "r\u0320",
    "1166": "r\u0320\u02b2",
    "1167": "r\u0320\u0319",
    "1168": "r\u0324",
    "1169": "r\u0325",
    "1170": "r\u0325\u02b2",
    "1171": "r\u0325\u02b2\u02d0",
    "1172": "r\u0325\u02d0",
    "1173": "r\u0329",
    "1174": "r\u032a",
    "1175": "r\u032a|r",
    "1176": "r\u032a\u02b2",
    "1177": "r\u032a\u02b2|r\u02b2",
    "1178": "r\u032a\u02d0",
    "1179": "r\u032a\u02e0|r\u02e0",
    "1180": "r\u032a\u02e4",
    "1181": "r\u032a\u02e4|r\u02e4",
    "1182": "r\u032a\u02e4\u02d0",
    "1183": "r\u032a\u0325|r\u0325",
    "1184": "r\u032a\u0330|r\u0330",
    "1185": "r\u032a\u0353|r\u0353",
    "1186": "r\u0330",
    "1187": "r\u033a",
    "1188": "r\u033a\u02b2",
    "1189": "r\u033a\u0325",
    "1190": "r\u033a\u0348",
    "1191": "r\u0348\u02d0",
    "1192": "r\u1da3",
    "1193": "s",
    "1194": "st",
    "1195": "s\u027e",
    "1196": "s\u02b0",
    "1197": "s\u02b2",
    "1198": "s\u02b2\u02b0",
    "1199": "s\u02b2\u02d0",
    "1200": "s\u02b2\u02d1",
    "1201": "s\u02b7",
    "1202": "s\u02b7\u02b2",
    "1203": "s\u02bc",
    "1204": "s\u02bc\u02d0",
    "1205": "s\u02c0",
    "1206": "s\u02d0",
    "1207": "s\u02d1",
    "1208": "s\u02e0",
    "1209": "s\u02e4",
    "1210": "s\u02e4\u02d0",
    "1211": "s\u0319\u02e4",
    "1212": "s\u031f",
    "1213": "s\u0320",
    "1214": "s\u0329",
    "1215": "s\u032a",
    "1216": "s\u032a|s",
    "1217": "s\u032a\u02b0|s\u02b0",
    "1218": "s\u032a\u02b2",
    "1219": "s\u032a\u02b2|s\u02b2",
    "1220": "s\u032a\u02b7",
    "1221": "s\u032a\u02b7|s\u02b7",
    "1222": "s\u032a\u02b7\u02b2",
    "1223": "s\u032a\u02b7\u02d0|s\u02b7\u02d0",
    "1224": "s\u032a\u02bc",
    "1225": "s\u032a\u02bc|s\u02bc",
    "1226": "s\u032a\u02c0",
    "1227": "s\u032a\u02d0",
    "1228": "s\u032a\u02d0|s\u02d0",
    "1229": "s\u032a\u02e4",
    "1230": "s\u032a\u02e4|s\u02e4",
    "1231": "s\u032a\u02e4\u02d0",
    "1232": "s\u032a\u033b",
    "1233": "s\u0330",
    "1234": "s\u033a",
    "1235": "s\u033a\u02d0",
    "1236": "s\u033a\u0320",
    "1237": "s\u033b",
    "1238": "s\u033b\u02d0",
    "1239": "s\u033b\u0320",
    "1240": "s\u033b\u03b8",
    "1241": "s\u0347",
    "1242": "s\u0348",
    "1243": "s\u0348\u02d0",
    "1244": "s\u0349",
    "1245": "s\u1da3",
    "1246": "t",
    "1247": "tl",
    "1248": "tl\u02b1",
    "1249": "tn",
    "1250": "tr",
    "1251": "ts",
    "1252": "ts\u0266",
    "1253": "ts\u02b0",
    "1254": "ts\u02b0\u02d0",
    "1255": "ts\u02b2",
    "1256": "ts\u02b2\u02b0",
    "1257": "ts\u02b2\u02d0",
    "1258": "ts\u02b7",
    "1259": "ts\u02b7\u02b0",
    "1260": "ts\u02b7\u02bc",
    "1261": "ts\u02bc",
    "1262": "ts\u02bc\u02d0",
    "1263": "ts\u02c0",
    "1264": "ts\u02d0",
    "1265": "ts\u02e0",
    "1266": "ts\u02e4\u02b0",
    "1267": "ts\u032a",
    "1268": "ts\u0330",
    "1269": "ts\u033a",
    "1270": "ts\u033b",
    "1271": "ts\u0347",
    "1272": "ts\u0347\u02b0",
    "1273": "tx",
    "1274": "tz\u0324\u0325",
    "1275": "t\u0255",
    "1276": "t\u0255\u02b0",
    "1277": "t\u0255\u02b0\u02d0",
    "1278": "t\u0255\u02b7",
    "1279": "t\u0255\u02bc",
    "1280": "t\u0255\u02d0",
    "1281": "t\u0255\u1da3",
    "1282": "t\u0266",
    "1283": "t\u026c",
    "1284": "t\u026c\u02b0",
    "1285": "t\u026c\u02b0\u02d0",
    "1286": "t\u026c\u02b7\u02b0",
    "1287": "t\u026c\u02b7\u02bc",
    "1288": "t\u026c\u02bc",
    "1289": "t\u026c\u02bc\u02d0",
    "1290": "t\u026c\u02d0",
    "1291": "t\u026c\u0330",
    "1292": "t\u027e",
    "1293": "t\u02b0",
    "1294": "t\u02b0\u02bc",
    "1295": "t\u02b0\u02d0",
    "1296": "t\u02b2",
    "1297": "t\u02b2\u02b0",
    "1298": "t\u02b2\u02bc",
    "1299": "t\u02b2\u02d0",
    "1300": "t\u02b2\u02d1",
    "1301": "t\u02b7",
    "1302": "t\u02b7\u02b0",
    "1303": "t\u02b7\u02bc",
    "1304": "t\u02bc",
    "1305": "t\u02bckx\u02bc",
    "1306": "t\u02bc\u02d0",
    "1307": "t\u02c0",
    "1308": "t\u02d0",
    "1309": "t\u02d0s",
    "1310": "t\u02d1",
    "1311": "t\u02e0",
    "1312": "t\u02e4",
    "1313": "t\u02e4\u02d0",
    "1314": "t\u031f",
    "1315": "t\u031fs\u031f",
    "1316": "t\u031f\u0255\u031f",
    "1317": "t\u031f\u0283\u031f",
    "1318": "t\u031f\u02d0\u0255\u031f",
    "1319": "t\u0320",
    "1320": "t\u0320n\u0320",
    "1321": "t\u0320s\u0320\u02b2\u02b0",
    "1322": "t\u0320\u0283",
    "1323": "t\u0320\u0283x",
    "1324": "t\u0320\u0283\u027e",
    "1325": "t\u0320\u0283\u02b0",
    "1326": "t\u0320\u0283\u02b0\u02d0",
    "1327": "t\u0320\u0283\u02b2",
    "1328": "t\u0320\u0283\u02b2\u02b0",
    "1329": "t\u0320\u0283\u02b2\u02d0",
    "1330": "t\u0320\u0283\u02b7",
    "1331": "t\u0320\u0283\u02b7\u02b0",
    "1332": "t\u0320\u0283\u02b7\u02bc",
    "1333": "t\u0320\u0283\u02b7\u02d0",
    "1334": "t\u0320\u0283\u02bc",
    "1335": "t\u0320\u0283\u02bc\u02d0",
    "1336": "t\u0320\u0283\u02c0",
    "1337": "t\u0320\u0283\u02d0",
    "1338": "t\u0320\u0283\u02e0",
    "1339": "t\u0320\u0283\u02e4",
    "1340": "t\u0320\u0283\u02e4\u02b0",
    "1341": "t\u0320\u0283\u02e4\u02bc",
    "1342": "t\u0320\u0283\u0330",
    "1343": "t\u0320\u0283\u033a",
    "1344": "t\u0320\u0283\u033a\u02b0",
    "1345": "t\u0320\u0283\u0349",
    "1346": "t\u0320\u0286",
    "1347": "t\u0320\u0286\u02b0",
    "1348": "t\u0320\u0286\u02b7",
    "1349": "t\u0320\u0286\u02b7\u02b0",
    "1350": "t\u0320\u0286\u02b7\u02bc",
    "1351": "t\u0320\u02b0",
    "1352": "t\u0320\u02b2",
    "1353": "t\u0320\u02d0\u0283",
    "1354": "t\u0320\u0348\u0283",
    "1355": "t\u0320\u0348\u0283\u02b7",
    "1356": "t\u0320\u0348\u0283\u02d0",
    "1357": "t\u0320\u0349\u0283",
    "1358": "t\u032a",
    "1359": "t\u032an\u032a",
    "1360": "t\u032as",
    "1361": "t\u032as\u032a",
    "1362": "t\u032as\u032a|ts",
    "1363": "t\u032as\u032a\u0266|ts\u0266",
    "1364": "t\u032as\u032a\u02b0",
    "1365": "t\u032as\u032a\u02b0|ts\u02b0",
    "1366": "t\u032as\u032a\u02b2",
    "1367": "t\u032as\u032a\u02b2|ts\u02b2",
    "1368": "t\u032as\u032a\u02b2\u02b0",
    "1369": "t\u032as\u032a\u02b2\u02bc",
    "1370": "t\u032as\u032a\u02b7",
    "1371": "t\u032as\u032a\u02b7\u02b0",
    "1372": "t\u032as\u032a\u02b7\u02b0|ts\u02b7\u02b0",
    "1373": "t\u032as\u032a\u02b7\u02b2",
    "1374": "t\u032as\u032a\u02b7\u02b2\u02b0",
    "1375": "t\u032as\u032a\u02b7\u02b2\u02bc",
    "1376": "t\u032as\u032a\u02b7\u02bc",
    "1377": "t\u032as\u032a\u02b7\u02bc|ts\u02b7\u02bc",
    "1378": "t\u032as\u032a\u02b7\u02d0|ts\u02b7\u02d0",
    "1379": "t\u032as\u032a\u02bc",
    "1380": "t\u032as\u032a\u02bc|ts\u02bc",
    "1381": "t\u032as\u032a\u02bc\u02d0|ts\u02bc\u02d0",
    "1382": "t\u032as\u032a\u02c0|ts\u02c0",
    "1383": "t\u032as\u032a\u02d0",
    "1384": "t\u032as\u032a\u02d0|ts\u02d0",
    "1385": "t\u032ax",
    "1386": "t\u032a|t",
    "1387": "t\u032a\u0266",
    "1388": "t\u032a\u0266|t\u0266",
    "1389": "t\u032a\u026c",
    "1390": "t\u032a\u026c\u02bc",
    "1391": "t\u032a\u026c\u032a",
    "1392": "t\u032a\u026c\u032a|t\u026c",
    "1393": "t\u032a\u026c\u032a\u02b0",
    "1394": "t\u032a\u026c\u032a\u02b0|t\u026c\u02b0",
    "1395": "t\u032a\u026c\u032a\u02b7\u02b0|t\u026c\u02b7\u02b0",
    "1396": "t\u032a\u026c\u032a\u02b7\u02bc|t\u026c\u02b7\u02bc",
    "1397": "t\u032a\u026c\u032a\u02bc",
    "1398": "t\u032a\u026c\u032a\u02bc|t\u026c\u02bc",
    "1399": "t\u032a\u026c\u032a\u02bc\u02d0|t\u026c\u02bc\u02d0",
    "1400": "t\u032a\u026c\u032a\u02c0|t\u026c\u02c0",
    "1401": "t\u032a\u026c\u032a\u02d0|t\u026c\u02d0",
    "1402": "t\u032a\u0283|t\u0320\u0283",
    "1403": "t\u032a\u0299",
    "1404": "t\u032a\u02b0",
    "1405": "t\u032a\u02b0|t\u02b0",
    "1406": "t\u032a\u02b0\u02d0",
    "1407": "t\u032a\u02b2",
    "1408": "t\u032a\u02b2|t\u02b2",
    "1409": "t\u032a\u02b2\u02b0",
    "1410": "t\u032a\u02b2\u02b0|t\u02b2\u02b0",
    "1411": "t\u032a\u02b2\u02bc",
    "1412": "t\u032a\u02b7",
    "1413": "t\u032a\u02b7|t\u02b7",
    "1414": "t\u032a\u02b7\u02b0",
    "1415": "t\u032a\u02b7\u02b0|t\u02b7\u02b0",
    "1416": "t\u032a\u02b7\u02b2",
    "1417": "t\u032a\u02b7\u02b2\u02b0",
    "1418": "t\u032a\u02b7\u02b2\u02bc",
    "1419": "t\u032a\u02b7\u02bc",
    "1420": "t\u032a\u02bc",
    "1421": "t\u032a\u02bckx\u02bc",
    "1422": "t\u032a\u02bc|t\u02bc",
    "1423": "t\u032a\u02bc\u02d0",
    "1424": "t\u032a\u02c0",
    "1425": "t\u032a\u02c0|t\u02c0",
    "1426": "t\u032a\u02d0",
    "1427": "t\u032a\u02d0|t\u02d0",
    "1428": "t\u032a\u02e0",
    "1429": "t\u032a\u02e0\u02b0",
    "1430": "t\u032a\u02e0\u02b0|t\u02e0\u02b0",
    "1431": "t\u032a\u02e4",
    "1432": "t\u032a\u02e4|t\u02e4",
    "1433": "t\u032a\u02e4\u02b0",
    "1434": "t\u032a\u02e4\u02bc",
    "1435": "t\u032a\u02e4\u02d0",
    "1436": "t\u032a\u0319\u02e4",
    "1437": "t\u032a\u0330",
    "1438": "t\u032a\u033a",
    "1439": "t\u032a\u033b",
    "1440": "t\u032a\u033bs\u032a\u033b",
    "1441": "t\u032a\u0348",
    "1442": "t\u032a\u0349",
    "1443": "t\u032a\u03b8",
    "1444": "t\u032a\u03b8\u02b0",
    "1445": "t\u032a\u03b8\u02bc",
    "1446": "t\u032a\u03b8\u032a",
    "1447": "t\u0330",
    "1448": "t\u0330s\u0330",
    "1449": "t\u033a",
    "1450": "t\u033as\u033a",
    "1451": "t\u033as\u033a\u02b0",
    "1452": "t\u033as\u033a\u02bc",
    "1453": "t\u033as\u033a\u02d0",
    "1454": "t\u033a\u0255\u033a",
    "1455": "t\u033a\u0255\u033a\u02bc",
    "1456": "t\u033a\u0283\u033a",
    "1457": "t\u033a\u0283\u033a\u02b7",
    "1458": "t\u033a\u02b0",
    "1459": "t\u033a\u02bc",
    "1460": "t\u033a\u02d0",
    "1461": "t\u033a\u0348",
    "1462": "t\u033a\u0349",
    "1463": "t\u033b",
    "1464": "t\u033bs\u032a\u033b",
    "1465": "t\u033bs\u033b",
    "1466": "t\u033bs\u033b\u02b0",
    "1467": "t\u033bs\u033b\u02bc",
    "1468": "t\u033bs\u033b\u02d0",
    "1469": "t\u033b\u0255\u033b",
    "1470": "t\u033b\u0255\u033b\u02b0",
    "1471": "t\u033b\u0283\u033b",
    "1472": "t\u033b\u02b0",
    "1473": "t\u033b\u02b0\u02d0",
    "1474": "t\u033b\u02b2",
    "1475": "t\u033b\u02bc",
    "1476": "t\u033b\u02d0",
    "1477": "t\u0347s\u0347",
    "1478": "t\u0347s\u0347\u02b0",
    "1479": "t\u0348",
    "1480": "t\u0348s",
    "1481": "t\u0348s\u02b7",
    "1482": "t\u0348\u02d0",
    "1483": "t\u0349",
    "1484": "t\u0349s",
    "1485": "t\u0349\u0255\u0349",
    "1486": "t\u0349\u02b2",
    "1487": "u",
    "1488": "ua",
    "1489": "uai",
    "1490": "ua\u02d0",
    "1491": "ua\u0303",
    "1492": "ua\u0303\u02d0",
    "1493": "ua\u0308",
    "1494": "ua\u031f",
    "1495": "ue",
    "1496": "uei",
    "1497": "uei\u032f",
    "1498": "ue\u0303",
    "1499": "ue\u031e",
    "1500": "ui",
    "1501": "uie",
    "1502": "ui\u025b",
    "1503": "ui\u032f",
    "1504": "uo",
    "1505": "uo\u02d0",
    "1506": "uo\u031e",
    "1507": "uu\u032f",
    "1508": "uy",
    "1509": "u\u00e6",
    "1510": "u\u0153",
    "1511": "u\u0250",
    "1512": "u\u0251",
    "1513": "u\u0251i",
    "1514": "u\u0251\u02de",
    "1515": "u\u0251\u0303",
    "1516": "u\u0254",
    "1517": "u\u0254\u02d0",
    "1518": "u\u0259",
    "1519": "u\u0259i",
    "1520": "u\u0259\u032f",
    "1521": "u\u025b",
    "1522": "u\u025b\u0303",
    "1523": "u\u025c",
    "1524": "u\u0268",
    "1525": "u\u026a",
    "1526": "u\u026a\u032f",
    "1527": "u\u028a\u032f",
    "1528": "u\u028c",
    "1529": "u\u028c\u032f",
    "1530": "u\u02b1",
    "1531": "u\u02c0",
    "1532": "u\u02d0",
    "1533": "u\u02d0a",
    "1534": "u\u02d0e",
    "1535": "u\u02d0i\u0306",
    "1536": "u\u02d0\u0259",
    "1537": "u\u02d0\u028c",
    "1538": "u\u02d1",
    "1539": "u\u02de",
    "1540": "u\u02de\u02e4",
    "1541": "u\u02de\u02e4\u02d0",
    "1542": "u\u02e4",
    "1543": "u\u02e4\u02d0",
    "1544": "u\u0303",
    "1545": "u\u0303a\u0303",
    "1546": "u\u0303i",
    "1547": "u\u0303i\u0303",
    "1548": "u\u0303o",
    "1549": "u\u0303o\u02d0",
    "1550": "u\u0303\u0254\u0303\u02d0",
    "1551": "u\u0303\u0259",
    "1552": "u\u0303\u026a\u032f\u0303",
    "1553": "u\u0303\u02d0",
    "1554": "u\u0303\u02e4",
    "1555": "u\u0306",
    "1556": "u\u0306\u0303",
    "1557": "u\u0308",
    "1558": "u\u0308\u02d0",
    "1559": "u\u0318",
    "1560": "u\u0319",
    "1561": "u\u031c",
    "1562": "u\u031e",
    "1563": "u\u031e\u02d0",
    "1564": "u\u031e\u02d1",
    "1565": "u\u031f",
    "1566": "u\u0320",
    "1567": "u\u0320u",
    "1568": "u\u0324",
    "1569": "u\u0324a",
    "1570": "u\u0324a\u0324",
    "1571": "u\u0324i\u0324",
    "1572": "u\u0324\u0259\u0324",
    "1573": "u\u0324\u02d0",
    "1574": "u\u0324\u02d1",
    "1575": "u\u0324\u0303\u02d0",
    "1576": "u\u0325",
    "1577": "u\u032f",
    "1578": "u\u032fa",
    "1579": "u\u032fai",
    "1580": "u\u032fai\u032f",
    "1581": "u\u032fa\u02d0",
    "1582": "u\u032fa\u0303",
    "1583": "u\u032fe",
    "1584": "u\u032fei\u032f",
    "1585": "u\u032feu\u032f",
    "1586": "u\u032fi",
    "1587": "u\u032fo",
    "1588": "u\u032fo\u02d0",
    "1589": "u\u032fo\u0303",
    "1590": "u\u032fo\u0303\u02d0",
    "1591": "u\u032f\u00e6i",
    "1592": "u\u032f\u0251",
    "1593": "u\u032f\u0254",
    "1594": "u\u032f\u0254\u02d0",
    "1595": "u\u032f\u0254\u0303",
    "1596": "u\u032f\u0259",
    "1597": "u\u032f\u0259\u0303",
    "1598": "u\u032f\u025b",
    "1599": "u\u032f\u025bi",
    "1600": "u\u032f\u025bi\u032f",
    "1601": "u\u032f\u025b\u0303",
    "1602": "u\u032f\u0303",
    "1603": "u\u0330",
    "1604": "u\u0330\u02d0",
    "1605": "u\u0330\u0303",
    "1606": "u\u033di",
    "1607": "u\u0353",
    "1608": "u\u1d31",
    "1609": "v",
    "1610": "v\u027e",
    "1611": "v\u02b1",
    "1612": "v\u02b2",
    "1613": "v\u02b7",
    "1614": "v\u02d0",
    "1615": "v\u02e0",
    "1616": "v\u02e4",
    "1617": "v\u0303",
    "1618": "v\u0324",
    "1619": "v\u0325",
    "1620": "v\u0329",
    "1621": "v\u033c",
    "1622": "w",
    "1623": "w\u02b1",
    "1624": "w\u02b2",
    "1625": "w\u02bc",
    "1626": "w\u02c0",
    "1627": "w\u02d0",
    "1628": "w\u02de",
    "1629": "w\u02e4",
    "1630": "w\u0303",
    "1631": "w\u0308",
    "1632": "w\u031c",
    "1633": "w\u031c\u02b2",
    "1634": "w\u031e",
    "1635": "w\u0324",
    "1636": "w\u0325",
    "1637": "w\u0330",
    "1638": "x",
    "1639": "xh",
    "1640": "xk",
    "1641": "x\u0280\u0325",
    "1642": "x\u02b0",
    "1643": "x\u02b2",
    "1644": "x\u02b2\u02d0",
    "1645": "x\u02b7",
    "1646": "x\u02b7\u02bc",
    "1647": "x\u02b7\u02d0",
    "1648": "x\u02bc",
    "1649": "x\u02d0",
    "1650": "x\u031f\u02b2",
    "1651": "x\u0320",
    "1652": "x\u0325",
    "1653": "x\u0348",
    "1654": "x\u0348\u02b7",
    "1655": "x\u0348\u02d0",
    "1656": "x\u0349",
    "1657": "y",
    "1658": "ya",
    "1659": "ye",
    "1660": "yi",
    "1661": "yia",
    "1662": "yi\u0303",
    "1663": "yi\u032f",
    "1664": "yo",
    "1665": "yu",
    "1666": "yu\u032f",
    "1667": "y\u00e6",
    "1668": "y\u00f8",
    "1669": "y\u00f8\u031e",
    "1670": "y\u0153",
    "1671": "y\u0153\u02d0",
    "1672": "y\u0259",
    "1673": "y\u0259\u032f",
    "1674": "y\u025b",
    "1675": "y\u025c",
    "1676": "y\u028c\u032f",
    "1677": "y\u02bc",
    "1678": "y\u02d0",
    "1679": "y\u02d0\u0259",
    "1680": "y\u02d1",
    "1681": "y\u0303",
    "1682": "y\u0303\u0153",
    "1683": "y\u0303\u0153\u02d0",
    "1684": "y\u0303\u02d0",
    "1685": "y\u0306",
    "1686": "y\u031e",
    "1687": "y\u0320",
    "1688": "y\u0324",
    "1689": "y\u032f\u00f8",
    "1690": "y\u0330",
    "1691": "y\u0330\u02d0",
    "1692": "z",
    "1693": "z\u027e",
    "1694": "z\u02b2",
    "1695": "z\u02b2\u02d0",
    "1696": "z\u02b7",
    "1697": "z\u02c0",
    "1698": "z\u02d0",
    "1699": "z\u02e0",
    "1700": "z\u02e4",
    "1701": "z\u02e4\u02d0",
    "1702": "z\u031e\u0329",
    "1703": "z\u031e\u0329\u02e0",
    "1704": "z\u031e\u0329\u0303\u02e0",
    "1705": "z\u031f",
    "1706": "z\u0320",
    "1707": "z\u0324",
    "1708": "z\u0325",
    "1709": "z\u0329",
    "1710": "z\u032a",
    "1711": "z\u032a|z",
    "1712": "z\u032a\u02b2",
    "1713": "z\u032a\u02b2|z\u02b2",
    "1714": "z\u032a\u02b7",
    "1715": "z\u032a\u02b7|z\u02b7",
    "1716": "z\u032a\u02d0",
    "1717": "z\u032a\u02e4",
    "1718": "z\u032a\u02e4|z\u02e4",
    "1719": "z\u032a\u02e4\u02d0",
    "1720": "z\u032a\u033b",
    "1721": "z\u032a\u0347|z\u0347",
    "1722": "z\u033a",
    "1723": "z\u033b",
    "1724": "z\u033b\u02d0",
    "1725": "z\u0347",
    "1726": "z\u0348\u02d0",
    "1727": "\u00e6",
    "1728": "\u00e6e",
    "1729": "\u00e6e\u032f",
    "1730": "\u00e6e\u032f\u0303",
    "1731": "\u00e6i",
    "1732": "\u00e6i\u032f",
    "1733": "\u00e6o",
    "1734": "\u00e6u",
    "1735": "\u00e6u\u032f",
    "1736": "\u00e6\u0254",
    "1737": "\u00e6\u025b",
    "1738": "\u00e6\u026a",
    "1739": "\u00e6\u026a\u032f",
    "1740": "\u00e6\u0289",
    "1741": "\u00e6\u028c\u032f",
    "1742": "\u00e6\u02d0",
    "1743": "\u00e6\u02d0i",
    "1744": "\u00e6\u02d0\u026a",
    "1745": "\u00e6\u02d0\u028a",
    "1746": "\u00e6\u02d1",
    "1747": "\u00e6\u02e4",
    "1748": "\u00e6\u0303",
    "1749": "\u00e6\u0303\u026a\u032f\u0303",
    "1750": "\u00e6\u0303\u02d0",
    "1751": "\u00e6\u031e\u0303",
    "1752": "\u00e6\u0324",
    "1753": "\u00e6\u0324\u02d0",
    "1754": "\u00e6\u0330",
    "1755": "\u00e7",
    "1756": "\u00e7\u02b0",
    "1757": "\u00e7\u02b2",
    "1758": "\u00e7\u02b7",
    "1759": "\u00e7\u02d0",
    "1760": "\u00e7\u031f",
    "1761": "\u00f0",
    "1762": "\u00f0\u02b2",
    "1763": "\u00f0\u02bc",
    "1764": "\u00f0\u02d0",
    "1765": "\u00f0\u02e0",
    "1766": "\u00f0\u02e4",
    "1767": "\u00f0\u031e",
    "1768": "\u00f0\u032a",
    "1769": "\u00f0\u032a\u0319\u02e4",
    "1770": "\u00f0\u032a\u033a",
    "1771": "\u00f0\u033a\u031e",
    "1772": "\u00f0\u0347\u02e0",
    "1773": "\u00f0\u0349",
    "1774": "\u00f8",
    "1775": "\u00f8u",
    "1776": "\u00f8u\u032f",
    "1777": "\u00f8y",
    "1778": "\u00f8y\u032f",
    "1779": "\u00f8\u0258",
    "1780": "\u00f8\u0259",
    "1781": "\u00f8\u026a",
    "1782": "\u00f8\u026a\u032f",
    "1783": "\u00f8\u028c\u032f",
    "1784": "\u00f8\u02d0",
    "1785": "\u00f8\u02d0y\u032f",
    "1786": "\u00f8\u02d1",
    "1787": "\u00f8\u0303",
    "1788": "\u00f8\u0303\u02d0",
    "1789": "\u00f8\u0306",
    "1790": "\u00f8\u031e",
    "1791": "\u00f8\u031e\u02d0",
    "1792": "\u00f8\u031e\u02e4",
    "1793": "\u00f8\u031e\u031c",
    "1794": "\u00f8\u031e\u031c\u02d0",
    "1795": "\u00f8\u0320",
    "1796": "\u00f8\u0320\u031e",
    "1797": "\u00f8\u0324",
    "1798": "\u00f8\u0330",
    "1799": "\u0127",
    "1800": "\u0127\u02b7",
    "1801": "\u0127\u02d0",
    "1802": "\u0127\u0303\u02b2",
    "1803": "\u0127\u0348\u02d0",
    "1804": "\u014b",
    "1805": "\u014bb",
    "1806": "\u014bh",
    "1807": "\u014bh\u02b2",
    "1808": "\u014bh\u02b7",
    "1809": "\u014bh\u1da3",
    "1810": "\u014bk",
    "1811": "\u014bkx",
    "1812": "\u014bk\u027e",
    "1813": "\u014bk\u02b0",
    "1814": "\u014bk\u02b2",
    "1815": "\u014bk\u02b7",
    "1816": "\u014bk\u02bc",
    "1817": "\u014bm",
    "1818": "\u014bmkp",
    "1819": "\u014bmkp\u027e",
    "1820": "\u014bm\u0261b",
    "1821": "\u014bm\u02b2",
    "1822": "\u014bm\u02b7",
    "1823": "\u014bm\u02e4",
    "1824": "\u014bx\u02b0",
    "1825": "\u014b\u01c0",
    "1826": "\u014b\u01c0\u02b1",
    "1827": "\u014b\u01c0\u0353",
    "1828": "\u014b\u01c1",
    "1829": "\u014b\u01c1\u02bc",
    "1830": "\u014b\u01c1\u0353",
    "1831": "\u014b\u01c2",
    "1832": "\u014b\u01c2\u0353\u02e1",
    "1833": "\u014b\u01c3",
    "1834": "\u014b\u01c3\u02b1",
    "1835": "\u014b\u01c3\u02bc",
    "1836": "\u014b\u01c3\u0320",
    "1837": "\u014b\u0261",
    "1838": "\u014b\u0261mb",
    "1839": "\u014b\u0261\u02b2",
    "1840": "\u014b\u0261\u02b7",
    "1841": "\u014b\u0261\u02d0",
    "1842": "\u014b\u0261\u031f",
    "1843": "\u014b\u0263",
    "1844": "\u014b\u0263\u02b2",
    "1845": "\u014b\u0263\u02b7",
    "1846": "\u014b\u0263\u1da3",
    "1847": "\u014b\u027e",
    "1848": "\u014b\u0298",
    "1849": "\u014b\u02b0",
    "1850": "\u014b\u02b1",
    "1851": "\u014b\u02b2",
    "1852": "\u014b\u02b2\u02d0",
    "1853": "\u014b\u02b7",
    "1854": "\u014b\u02b7\u02b2",
    "1855": "\u014b\u02b7\u02d0",
    "1856": "\u014b\u02c0",
    "1857": "\u014b\u02d0",
    "1858": "\u014b\u02d1",
    "1859": "\u014b\u02e4",
    "1860": "\u014b\u030a",
    "1861": "\u014b\u030a\u01c0",
    "1862": "\u014b\u030a\u01c1",
    "1863": "\u014b\u030a\u01c2",
    "1864": "\u014b\u030a\u01c3",
    "1865": "\u014b\u030a\u0298",
    "1866": "\u014b\u031e",
    "1867": "\u014b\u031f",
    "1868": "\u014b\u0324",
    "1869": "\u014b\u0324k\u02b0",
    "1870": "\u014b\u0324\u01c0",
    "1871": "\u014b\u0324\u01c0\u0353",
    "1872": "\u014b\u0324\u01c1",
    "1873": "\u014b\u0324\u01c2",
    "1874": "\u014b\u0324\u01c2\u0353\u02e1",
    "1875": "\u014b\u0324\u01c3",
    "1876": "\u014b\u0324\u0261\u01c3",
    "1877": "\u014b\u0324\u0261\u0324",
    "1878": "\u014b\u0324\u02b1",
    "1879": "\u014b\u0325",
    "1880": "\u014b\u0325m\u0325",
    "1881": "\u014b\u0325\u014b",
    "1882": "\u014b\u0325\u01c0\u0353x\u02c0",
    "1883": "\u014b\u0325\u01c0\u0353\u02b0",
    "1884": "\u014b\u0325\u01c0\u0353\u02c0",
    "1885": "\u014b\u0325\u01c1\u0353\u02b0",
    "1886": "\u014b\u0325\u01c1\u0353\u02c0",
    "1887": "\u014b\u0325\u01c2x\u02c0",
    "1888": "\u014b\u0325\u01c2\u02b0",
    "1889": "\u014b\u0325\u01c2\u02c0",
    "1890": "\u014b\u0325\u01c2\u0353\u02e1x\u02c0",
    "1891": "\u014b\u0325\u01c2\u0353\u02e1\u02b0",
    "1892": "\u014b\u0325\u01c2\u0353\u02e1\u02c0",
    "1893": "\u014b\u0325\u01c3",
    "1894": "\u014b\u0325\u01c3\u02c0",
    "1895": "\u014b\u0325\u01c3\u02e0\u02c0",
    "1896": "\u014b\u0325\u01c3\u0320\u02b0",
    "1897": "\u014b\u0325\u01c3\u0320\u02c0",
    "1898": "\u014b\u0325\u02b2",
    "1899": "\u014b\u0325\u02b7",
    "1900": "\u014b\u0329",
    "1901": "\u014b\u0329\u02b7",
    "1902": "\u014b\u0330",
    "1903": "\u014b\u203c",
    "1904": "\u014b\u203c\u02b1",
    "1905": "\u0153",
    "1906": "\u0153i",
    "1907": "\u0153i\u032f",
    "1908": "\u0153u",
    "1909": "\u0153u\u032f",
    "1910": "\u0153y",
    "1911": "\u0153y\u02d0",
    "1912": "\u0153\u028f",
    "1913": "\u0153\u02d0",
    "1914": "\u0153\u0303",
    "1915": "\u0153\u0303\u025b\u0303",
    "1916": "\u0153\u0303\u02d0",
    "1917": "\u0153\u031c",
    "1918": "\u0153\u031c\u02d0",
    "1919": "\u0153\u031e",
    "1920": "\u0153\u031e\u025b\u031e",
    "1921": "\u0153\u031e\u028c\u032f",
    "1922": "\u0153\u031e\u02d0",
    "1923": "\u0153\u0320",
    "1924": "\u0153\u0320\u02d0",
    "1925": "\u0153\u0324",
    "1926": "\u0153\u0330\u02d0",
    "1927": "\u0234",
    "1928": "\u0234\u02b7",
    "1929": "\u0235",
    "1930": "\u0235\u02b7",
    "1931": "\u0236",
    "1932": "\u0236\u0235",
    "1933": "\u0236\u02b7",
    "1934": "\u0236\u0348",
    "1935": "\u0236\u0349",
    "1936": "\u0250",
    "1937": "\u0250i",
    "1938": "\u0250i\u032f",
    "1939": "\u0250u",
    "1940": "\u0250\u026a",
    "1941": "\u0250\u0289",
    "1942": "\u0250\u028a",
    "1943": "\u0250\u02d0",
    "1944": "\u0250\u02e4",
    "1945": "\u0250\u0303",
    "1946": "\u0250\u0303i",
    "1947": "\u0250\u0303u\u031c",
    "1948": "\u0250\u0303\u026a\u032f\u0303",
    "1949": "\u0250\u0303\u028a\u032f\u0303",
    "1950": "\u0250\u0306",
    "1951": "\u0250\u031f",
    "1952": "\u0250\u0339\u0306",
    "1953": "\u0251",
    "1954": "\u0251e",
    "1955": "\u0251i",
    "1956": "\u0251i\u032f",
    "1957": "\u0251o",
    "1958": "\u0251u",
    "1959": "\u0251u\u02d0",
    "1960": "\u0251u\u032f",
    "1961": "\u0251y",
    "1962": "\u0251\u026a",
    "1963": "\u0251\u026f",
    "1964": "\u0251\u028a",
    "1965": "\u0251\u028a\u032f",
    "1966": "\u0251\u02d0",
    "1967": "\u0251\u02d0i\u032f",
    "1968": "\u0251\u02d1",
    "1969": "\u0251\u02de",
    "1970": "\u0251\u02e4\u02d0",
    "1971": "\u0251\u0303",
    "1972": "\u0251\u0303i\u0303",
    "1973": "\u0251\u0303o\u0303",
    "1974": "\u0251\u0303\u0254\u0303",
    "1975": "\u0251\u0303\u02d0",
    "1976": "\u0251\u0303\u02de",
    "1977": "\u0251\u0306",
    "1978": "\u0251\u0308",
    "1979": "\u0251\u0308\u02d0",
    "1980": "\u0251\u0319",
    "1981": "\u0251\u031d",
    "1982": "\u0251\u031d\u02d0",
    "1983": "\u0251\u031d\u0339",
    "1984": "\u0251\u031f\u02d0",
    "1985": "\u0251\u031f\u02d1",
    "1986": "\u0251\u031f\u031d",
    "1987": "\u0251\u0324",
    "1988": "\u0251\u0324\u02d0",
    "1989": "\u0251\u0330\u02d0",
    "1990": "\u0252",
    "1991": "\u0252u\u032f",
    "1992": "\u0252\u026f",
    "1993": "\u0252\u02d0",
    "1994": "\u0252\u02d0i\u032f",
    "1995": "\u0252\u0303",
    "1996": "\u0252\u0303\u02d0",
    "1997": "\u0252\u0306",
    "1998": "\u0252\u031d",
    "1999": "\u0252\u0324",
    "2000": "\u0253",
    "2001": "\u0253\u02b2",
    "2002": "\u0253\u02b7",
    "2003": "\u0253\u02d0",
    "2004": "\u0253\u0325",
    "2005": "\u0253\u0325\u02d0",
    "2006": "\u0254",
    "2007": "\u0254a",
    "2008": "\u0254a\u02d0",
    "2009": "\u0254e",
    "2010": "\u0254i",
    "2011": "\u0254i\u032f",
    "2012": "\u0254o",
    "2013": "\u0254o\u032f",
    "2014": "\u0254o\u032f\u0303",
    "2015": "\u0254u",
    "2016": "\u0254u\u02d0",
    "2017": "\u0254u\u032f",
    "2018": "\u0254y",
    "2019": "\u0254y\u032f\u02d0",
    "2020": "\u0254\u0259",
    "2021": "\u0254\u025b",
    "2022": "\u0254\u026a",
    "2023": "\u0254\u026a\u032f",
    "2024": "\u0254\u028a",
    "2025": "\u0254\u028a\u032f",
    "2026": "\u0254\u028f",
    "2027": "\u0254\u02d0",
    "2028": "\u0254\u02d0i\u0306",
    "2029": "\u0254\u02d0\u0259",
    "2030": "\u0254\u02d1",
    "2031": "\u0254\u02e4",
    "2032": "\u0254\u02e4\u02d0",
    "2033": "\u0254\u0303",
    "2034": "\u0254\u0303i\u0303",
    "2035": "\u0254\u0303\u028a\u032f\u0303",
    "2036": "\u0254\u0303\u02d0",
    "2037": "\u0254\u0303\u02e4\u02d0",
    "2038": "\u0254\u0306",
    "2039": "\u0254\u0318\u02d0",
    "2040": "\u0254\u0319",
    "2041": "\u0254\u0319\u02d0",
    "2042": "\u0254\u031c",
    "2043": "\u0254\u031c\u02d0",
    "2044": "\u0254\u031c\u0303\u02d0",
    "2045": "\u0254\u031d",
    "2046": "\u0254\u031d\u02d0",
    "2047": "\u0254\u031e",
    "2048": "\u0254\u031e\u02d0",
    "2049": "\u0254\u031e\u0303",
    "2050": "\u0254\u031e\u0303\u02d0",
    "2051": "\u0254\u031f\u031c",
    "2052": "\u0254\u031f\u031c\u02d0",
    "2053": "\u0254\u031f\u031c\u0303\u02d0",
    "2054": "\u0254\u031f\u031c\u0330",
    "2055": "\u0254\u0324",
    "2056": "\u0254\u0324i\u0324",
    "2057": "\u0254\u0324\u02d0",
    "2058": "\u0254\u0324\u02d1",
    "2059": "\u0254\u0324\u0303\u02d0",
    "2060": "\u0254\u032f",
    "2061": "\u0254\u0330",
    "2062": "\u0254\u0330\u02d0",
    "2063": "\u0254\u0330\u02d1",
    "2064": "\u0254\u033d",
    "2065": "\u0254\u033di",
    "2066": "\u0255",
    "2067": "\u0255\u02b0",
    "2068": "\u0255\u02bc",
    "2069": "\u0255\u02d0",
    "2070": "\u0255\u031f",
    "2071": "\u0255\u031f\u02d0",
    "2072": "\u0255\u1da3",
    "2073": "\u0256",
    "2074": "\u0256r",
    "2075": "\u0256r\u0320",
    "2076": "\u0256r\u0320\u0353",
    "2077": "\u0256\u0266",
    "2078": "\u0256\u0273",
    "2079": "\u0256\u027d",
    "2080": "\u0256\u0290",
    "2081": "\u0256\u0290\u02b7",
    "2082": "\u0256\u02b1",
    "2083": "\u0256\u02d0",
    "2084": "\u0256\u0324",
    "2085": "\u0256\u0324\u02d0",
    "2086": "\u0256\u0325\u0290\u0325",
    "2087": "\u0256\u0330",
    "2088": "\u0256\u033b\u0290\u033b",
    "2089": "\u0256\u207f",
    "2090": "\u0257",
    "2091": "\u0257\u0292",
    "2092": "\u0257\u02b1",
    "2093": "\u0257\u02b2",
    "2094": "\u0257\u02b7",
    "2095": "\u0257\u02d0",
    "2096": "\u0257\u0320",
    "2097": "\u0257\u0325",
    "2098": "\u0257\u032a",
    "2099": "\u0257\u032a|\u0257",
    "2100": "\u0258",
    "2101": "\u0258i",
    "2102": "\u0258\u02d0",
    "2103": "\u0258\u0303",
    "2104": "\u0258\u0303\u02d0",
    "2105": "\u0258\u0306",
    "2106": "\u0258\u031f",
    "2107": "\u0258\u0320",
    "2108": "\u0259",
    "2109": "\u0259i",
    "2110": "\u0259i\u0303",
    "2111": "\u0259i\u032f",
    "2112": "\u0259o",
    "2113": "\u0259u",
    "2114": "\u0259u\u0303",
    "2115": "\u0259u\u032f",
    "2116": "\u0259y",
    "2117": "\u0259\u0268",
    "2118": "\u0259\u0268\u0319",
    "2119": "\u0259\u026a",
    "2120": "\u0259\u026aa",
    "2121": "\u0259\u026f",
    "2122": "\u0259\u026f\u0303",
    "2123": "\u0259\u0289",
    "2124": "\u0259\u028a",
    "2125": "\u0259\u028a\u026a",
    "2126": "\u0259\u02d0",
    "2127": "\u0259\u02d1",
    "2128": "\u0259\u02de",
    "2129": "\u0259\u02de\u02d0",
    "2130": "\u0259\u02e4",
    "2131": "\u0259\u0303",
    "2132": "\u0259\u0303i\u0303",
    "2133": "\u0259\u0303u\u0303",
    "2134": "\u0259\u0303\u02d0",
    "2135": "\u0259\u0303\u02de",
    "2136": "\u0259\u0306",
    "2137": "\u0259\u0318\u02d0",
    "2138": "\u0259\u031e\u0306",
    "2139": "\u0259\u031f",
    "2140": "\u0259\u031f\u0306",
    "2141": "\u0259\u0320\u0303",
    "2142": "\u0259\u0324",
    "2143": "\u0259\u0324\u0303\u02d0",
    "2144": "\u0259\u0325",
    "2145": "\u0259\u032f",
    "2146": "\u0259\u0330",
    "2147": "\u0259\u0330\u026f\u0330",
    "2148": "\u0259\u0330\u0303",
    "2149": "\u0259\u0339",
    "2150": "\u025a",
    "2151": "\u025a\u02d0",
    "2152": "\u025b",
    "2153": "\u025ba",
    "2154": "\u025ba\u031f",
    "2155": "\u025be",
    "2156": "\u025bi",
    "2157": "\u025bi\u02d0",
    "2158": "\u025bi\u032f",
    "2159": "\u025bo",
    "2160": "\u025bo\u031e",
    "2161": "\u025bu",
    "2162": "\u025bu\u031c",
    "2163": "\u025bu\u032f",
    "2164": "\u025b\u0250",
    "2165": "\u025b\u0259",
    "2166": "\u025b\u026a",
    "2167": "\u025b\u026a\u032f",
    "2168": "\u025b\u026f",
    "2169": "\u025b\u0289",
    "2170": "\u025b\u028a",
    "2171": "\u025b\u028a\u032f",
    "2172": "\u025b\u02d0",
    "2173": "\u025b\u02d1",
    "2174": "\u025b\u02e0",
    "2175": "\u025b\u0303",
    "2176": "\u025b\u0303u\u0303",
    "2177": "\u025b\u0303\u0254\u0303",
    "2178": "\u025b\u0303\u0259",
    "2179": "\u025b\u0303\u02d0",
    "2180": "\u025b\u0303\u02d0i\u032f",
    "2181": "\u025b\u0306",
    "2182": "\u025b\u0306\u0303",
    "2183": "\u025b\u0318\u02d0",
    "2184": "\u025b\u0319",
    "2185": "\u025b\u0319\u02d0",
    "2186": "\u025b\u0319\u02e0",
    "2187": "\u025b\u031d",
    "2188": "\u025b\u031d\u02d0",
    "2189": "\u025b\u031e",
    "2190": "\u025b\u0320",
    "2191": "\u025b\u0320\u02d0",
    "2192": "\u025b\u0324",
    "2193": "\u025b\u0324i\u0324",
    "2194": "\u025b\u0324\u02d0",
    "2195": "\u025b\u0324\u02d1",
    "2196": "\u025b\u0324\u0303\u02d0",
    "2197": "\u025b\u032f",
    "2198": "\u025b\u032f\u00e6\u02d0",
    "2199": "\u025b\u0330",
    "2200": "\u025b\u0330\u02d0",
    "2201": "\u025b\u0330\u02d1",
    "2202": "\u025b\u0330\u0303",
    "2203": "\u025c",
    "2204": "\u025ci",
    "2205": "\u025ci\u032f",
    "2206": "\u025c\u026a",
    "2207": "\u025c\u026a\u032f",
    "2208": "\u025c\u02d0",
    "2209": "\u025c\u0303",
    "2210": "\u025c\u0339",
    "2211": "\u025c\u0339\u02d0",
    "2212": "\u025e",
    "2213": "\u025ee\u032f",
    "2214": "\u025e\u028a",
    "2215": "\u025e\u028f\u032f",
    "2216": "\u025e\u02d0",
    "2217": "\u025e\u031c",
    "2218": "\u025e\u031c\u02d0",
    "2219": "\u025e\u031c\u0303\u02d0",
    "2220": "\u025e\u031c\u0330",
    "2221": "\u025e\u0320",
    "2222": "\u025e\u0320\u02d0",
    "2223": "\u025e\u0330",
    "2224": "\u025f",
    "2225": "\u025f\u0266",
    "2226": "\u025f\u029d",
    "2227": "\u025f\u029d\u02b7",
    "2228": "\u025f\u029d\u02d0",
    "2229": "\u025f\u029d\u031e",
    "2230": "\u025f\u02b1",
    "2231": "\u025f\u02b2",
    "2232": "\u025f\u02b7",
    "2233": "\u025f\u02d0",
    "2234": "\u025f\u031f",
    "2235": "\u025f\u0324",
    "2236": "\u025f\u0324\u029d",
    "2237": "\u025f\u0325\u029d\u0325",
    "2238": "\u025f\u0330",
    "2239": "\u025f\u0330\u0329",
    "2240": "\u0260",
    "2241": "\u0260\u0253",
    "2242": "\u0260\u02d0",
    "2243": "\u0260\u0325",
    "2244": "\u0260\u0325\u02b2",
    "2245": "\u0260\u0325\u02b7",
    "2246": "\u0261",
    "2247": "\u0261b",
    "2248": "\u0261br",
    "2249": "\u0261b\u027e",
    "2250": "\u0261b\u02b2",
    "2251": "\u0261b\u02b7",
    "2252": "\u0261b\u02d0",
    "2253": "\u0261b\u02e4",
    "2254": "\u0261b\u0329",
    "2255": "\u0261m",
    "2256": "\u0261v",
    "2257": "\u0261\u01c0",
    "2258": "\u0261\u01c0kx\u02bc",
    "2259": "\u0261\u01c0k\u02b0",
    "2260": "\u0261\u01c0x",
    "2261": "\u0261\u01c0x\u02bc",
    "2262": "\u0261\u01c0\u02b1",
    "2263": "\u0261\u01c0\u0353",
    "2264": "\u0261\u01c0\u0353x",
    "2265": "\u0261\u01c1",
    "2266": "\u0261\u01c1kx\u02bc",
    "2267": "\u0261\u01c1k\u02b0",
    "2268": "\u0261\u01c1x",
    "2269": "\u0261\u01c1x\u02bc",
    "2270": "\u0261\u01c1\u0353",
    "2271": "\u0261\u01c2",
    "2272": "\u0261\u01c2kx\u02bc",
    "2273": "\u0261\u01c2k\u02b0",
    "2274": "\u0261\u01c2x",
    "2275": "\u0261\u01c2\u0353\u02e1",
    "2276": "\u0261\u01c2\u0353\u02e1x",
    "2277": "\u0261\u01c3",
    "2278": "\u0261\u01c3kx\u02bc",
    "2279": "\u0261\u01c3k\u02b0",
    "2280": "\u0261\u01c3x",
    "2281": "\u0261\u01c3x\u02bc",
    "2282": "\u0261\u01c3\u02b1",
    "2283": "\u0261\u01c3\u0320",
    "2284": "\u0261\u0253",
    "2285": "\u0261\u0263",
    "2286": "\u0261\u0266",
    "2287": "\u0261\u027e",
    "2288": "\u0261\u0298",
    "2289": "\u0261\u0298kx\u02bc",
    "2290": "\u0261\u0298k\u02b0",
    "2291": "\u0261\u0298x",
    "2292": "\u0261\u02b1",
    "2293": "\u0261\u02b2",
    "2294": "\u0261\u02b2\u02d0",
    "2295": "\u0261\u02b7",
    "2296": "\u0261\u02b7\u02b2",
    "2297": "\u0261\u02b7\u02d0",
    "2298": "\u0261\u02bc",
    "2299": "\u0261\u02bckx\u02bc",
    "2300": "\u0261\u02d0",
    "2301": "\u0261\u02de",
    "2302": "\u0261\u02e1",
    "2303": "\u0261\u030a",
    "2304": "\u0261\u030a\u02b0",
    "2305": "\u0261\u030a\u02b7",
    "2306": "\u0261\u030a\u02d0",
    "2307": "\u0261\u0319",
    "2308": "\u0261\u031f",
    "2309": "\u0261\u031f\u02b2",
    "2310": "\u0261\u0324",
    "2311": "\u0261\u0324\u01c0",
    "2312": "\u0261\u0324\u01c0\u0353",
    "2313": "\u0261\u0324\u01c1",
    "2314": "\u0261\u0324\u01c2",
    "2315": "\u0261\u0324\u01c2\u0353\u02e1",
    "2316": "\u0261\u0324\u01c3",
    "2317": "\u0261\u0324\u02b7",
    "2318": "\u0261\u0324\u02d0",
    "2319": "\u0261\u0324\u0325",
    "2320": "\u0261\u0329",
    "2321": "\u0261\u0329\u02b7",
    "2322": "\u0261\u0330",
    "2323": "\u0261\u0330\u01c0\u0353x",
    "2324": "\u0261\u0330\u01c2x",
    "2325": "\u0261\u0330\u01c2\u0353\u02e1x",
    "2326": "\u0261\u0330\u01c3x",
    "2327": "\u0261\u0348\u02d0",
    "2328": "\u0261\u1da3",
    "2329": "\u0261\u203c",
    "2330": "\u0261\u203cx",
    "2331": "\u0261\u203cx\u02bc",
    "2332": "\u0261\u203c\u02b1",
    "2333": "\u0261\u207f",
    "2334": "\u0262",
    "2335": "\u0262\u01c0",
    "2336": "\u0262\u01c0q\u02b0",
    "2337": "\u0262\u01c1",
    "2338": "\u0262\u01c1q\u02b0",
    "2339": "\u0262\u01c2",
    "2340": "\u0262\u01c3",
    "2341": "\u0262\u01c3q\u02b0",
    "2342": "\u0262\u0281",
    "2343": "\u0262\u0298",
    "2344": "\u0262\u02b1",
    "2345": "\u0262\u02b7",
    "2346": "\u0262\u02b7\u02e4",
    "2347": "\u0262\u02d0",
    "2348": "\u0262\u02e4",
    "2349": "\u0262\u0325",
    "2350": "\u0263",
    "2351": "\u0263v",
    "2352": "\u0263\u02b2",
    "2353": "\u0263\u02b7",
    "2354": "\u0263\u02c0",
    "2355": "\u0263\u02d0",
    "2356": "\u0263\u030a",
    "2357": "\u0263\u031f\u02b2",
    "2358": "\u0263\u0324",
    "2359": "\u0263\u0325",
    "2360": "\u0263\u0329",
    "2361": "\u0263\u0330",
    "2362": "\u0263\u0348\u02d0",
    "2363": "\u0264",
    "2364": "\u0264i",
    "2365": "\u0264\u02d0",
    "2366": "\u0264\u02d1",
    "2367": "\u0264\u02de",
    "2368": "\u0264\u0303",
    "2369": "\u0264\u0303\u02d0",
    "2370": "\u0264\u031d",
    "2371": "\u0264\u031e",
    "2372": "\u0264\u031e\u02d0",
    "2373": "\u0264\u031e\u0303",
    "2374": "\u0264\u031e\u0306",
    "2375": "\u0264\u031f",
    "2376": "\u0264\u031f\u031e\u0303",
    "2377": "\u0264\u031f\u0339",
    "2378": "\u0264\u0324",
    "2379": "\u0264\u0324i\u0324",
    "2380": "\u0264\u0324\u02d0",
    "2381": "\u0264\u032f",
    "2382": "\u0265",
    "2383": "\u0265\u02e4",
    "2384": "\u0265\u0303",
    "2385": "\u0265\u030a",
    "2386": "\u0265\u0325",
    "2387": "\u0266",
    "2388": "\u0266\u02b7",
    "2389": "\u0266\u0324",
    "2390": "\u0267",
    "2391": "\u0268",
    "2392": "\u0268a",
    "2393": "\u0268a\u0320\u0308",
    "2394": "\u0268i",
    "2395": "\u0268i\u032f",
    "2396": "\u0268\u0259",
    "2397": "\u0268\u025b",
    "2398": "\u0268\u02d0",
    "2399": "\u0268\u02d1",
    "2400": "\u0268\u02de",
    "2401": "\u0268\u0303",
    "2402": "\u0268\u0303i\u0303",
    "2403": "\u0268\u0303\u02d0",
    "2404": "\u0268\u0306",
    "2405": "\u0268\u0318",
    "2406": "\u0268\u031c",
    "2407": "\u0268\u031e",
    "2408": "\u0268\u031e\u02d0",
    "2409": "\u0268\u031e\u0303",
    "2410": "\u0268\u031e\u0303\u02d0",
    "2411": "\u0268\u031e\u0330",
    "2412": "\u0268\u0320",
    "2413": "\u0268\u0324",
    "2414": "\u0268\u0325",
    "2415": "\u0268\u0330",
    "2416": "\u0268\u0339",
    "2417": "\u0268\u0339\u02d0",
    "2418": "\u026a",
    "2419": "\u026aa",
    "2420": "\u026aa\u0303",
    "2421": "\u026ae\u031e",
    "2422": "\u026ai",
    "2423": "\u026au",
    "2424": "\u026a\u0259",
    "2425": "\u026a\u025b",
    "2426": "\u026a\u025b\u02d0",
    "2427": "\u026a\u028c",
    "2428": "\u026a\u02d0",
    "2429": "\u026a\u02e0",
    "2430": "\u026a\u02e4",
    "2431": "\u026a\u0303",
    "2432": "\u026a\u0303\u0259\u0303",
    "2433": "\u026a\u0303\u025b",
    "2434": "\u026a\u0303\u025b\u02d0",
    "2435": "\u026a\u0303\u02d0",
    "2436": "\u026a\u0306",
    "2437": "\u026a\u0308",
    "2438": "\u026a\u0308\u02d0",
    "2439": "\u026a\u0319",
    "2440": "\u026a\u0319\u02d0",
    "2441": "\u026a\u0319\u02e0",
    "2442": "\u026a\u031d",
    "2443": "\u026a\u031d\u02d0",
    "2444": "\u026a\u031e",
    "2445": "\u026a\u031e\u0308",
    "2446": "\u026a\u0320",
    "2447": "\u026a\u0324",
    "2448": "\u026a\u032f",
    "2449": "\u026a\u032fa",
    "2450": "\u026a\u032fa\u0308",
    "2451": "\u026a\u032fu\u031e",
    "2452": "\u026a\u032f\u0254",
    "2453": "\u026a\u032f\u025b",
    "2454": "\u026a\u0330",
    "2455": "\u026b",
    "2456": "\u026b\u02d0",
    "2457": "\u026b\u0325",
    "2458": "\u026b\u032a",
    "2459": "\u026b\u033a",
    "2460": "\u026b\u033b",
    "2461": "\u026c",
    "2462": "\u026cl",
    "2463": "\u026c\u029f\u0353\u0325",
    "2464": "\u026c\u02b2",
    "2465": "\u026c\u02b2\u02bc",
    "2466": "\u026c\u02b7",
    "2467": "\u026c\u02bc",
    "2468": "\u026c\u02d0",
    "2469": "\u026c\u02e0",
    "2470": "\u026c\u032a",
    "2471": "\u026c\u032a|\u026c",
    "2472": "\u026c\u032a\u02b2",
    "2473": "\u026c\u032a\u02b2|\u026c\u02b2",
    "2474": "\u026c\u032a\u02b2\u02bc",
    "2475": "\u026c\u032a\u02b7|\u026c\u02b7",
    "2476": "\u026c\u032a\u02b7\u02d0|\u026c\u02b7\u02d0",
    "2477": "\u026c\u032a\u02bc|\u026c\u02bc",
    "2478": "\u026c\u032a\u02d0",
    "2479": "\u026c\u032a\u02d0|\u026c\u02d0",
    "2480": "\u026c\u032a\u033a",
    "2481": "\u026c\u033b",
    "2482": "\u026d",
    "2483": "\u026d\u02b7",
    "2484": "\u026d\u02d0",
    "2485": "\u026d\u031f",
    "2486": "\u026d\u0324",
    "2487": "\u026d\u0325",
    "2488": "\u026d\u0329",
    "2489": "\u026d\u033a",
    "2490": "\u026d\u0353",
    "2491": "\u026e",
    "2492": "\u026e\u02b2",
    "2493": "\u026e\u02bc",
    "2494": "\u026e\u0324",
    "2495": "\u026e\u032a",
    "2496": "\u026e\u032a|\u026e",
    "2497": "\u026e\u032a\u02b2",
    "2498": "\u026e\u033a",
    "2499": "\u026f",
    "2500": "\u026fa",
    "2501": "\u026fi",
    "2502": "\u026fi\u032f",
    "2503": "\u026fo",
    "2504": "\u026f\u0251",
    "2505": "\u026f\u0259",
    "2506": "\u026f\u026a\u032f",
    "2507": "\u026f\u028c",
    "2508": "\u026f\u02d0",
    "2509": "\u026f\u02d1",
    "2510": "\u026f\u0303",
    "2511": "\u026f\u0303\u0259",
    "2512": "\u026f\u0303\u02d0",
    "2513": "\u026f\u0306",
    "2514": "\u026f\u0319",
    "2515": "\u026f\u0319i\u032f",
    "2516": "\u026f\u031d",
    "2517": "\u026f\u031e",
    "2518": "\u026f\u031e\u0306",
    "2519": "\u026f\u031e\u032f",
    "2520": "\u026f\u031f",
    "2521": "\u026f\u0324",
    "2522": "\u026f\u0324a",
    "2523": "\u026f\u0324i\u0324",
    "2524": "\u026f\u0324\u0259\u0324",
    "2525": "\u026f\u0324\u02d0",
    "2526": "\u026f\u032f\u0264\u031e",
    "2527": "\u026f\u0330",
    "2528": "\u026f\u0330\u033d\u02d0",
    "2529": "\u026f\u033d",
    "2530": "\u026f\u033d\u02d0",
    "2531": "\u026f\u0353",
    "2532": "\u0270",
    "2533": "\u0270\u0303",
    "2534": "\u0270\u0330",
    "2535": "\u0271",
    "2536": "\u0271f",
    "2537": "\u0271f\u027e",
    "2538": "\u0271f\u02b2",
    "2539": "\u0271f\u02b7",
    "2540": "\u0271v",
    "2541": "\u0271v\u027e",
    "2542": "\u0271v\u02b2",
    "2543": "\u0271\u00f0",
    "2544": "\u0271\u0324f",
    "2545": "\u0271\u0325f",
    "2546": "\u0272",
    "2547": "\u0272c",
    "2548": "\u0272c\u02b0",
    "2549": "\u0272c\u02b2",
    "2550": "\u0272c\u02bc",
    "2551": "\u0272j",
    "2552": "\u0272\u025f",
    "2553": "\u0272\u025f\u0291",
    "2554": "\u0272\u025f\u029d",
    "2555": "\u0272\u0284",
    "2556": "\u0272\u0292",
    "2557": "\u0272\u02b1",
    "2558": "\u0272\u02b7",
    "2559": "\u0272\u02bc",
    "2560": "\u0272\u02d0",
    "2561": "\u0272\u030a",
    "2562": "\u0272\u031f",
    "2563": "\u0272\u031fd\u0291",
    "2564": "\u0272\u031ft\u0255\u02b0",
    "2565": "\u0272\u031f\u029d\u031f",
    "2566": "\u0272\u031f\u0325",
    "2567": "\u0272\u0320",
    "2568": "\u0272\u0324",
    "2569": "\u0272\u0324c\u02b0",
    "2570": "\u0272\u0324\u025f\u0324",
    "2571": "\u0272\u0324\u02b1",
    "2572": "\u0272\u0325",
    "2573": "\u0272\u0325\u0272",
    "2574": "\u0272\u0329",
    "2575": "\u0272\u0330",
    "2576": "\u0272\u033b",
    "2577": "\u0272\u033b\u031f",
    "2578": "\u0272\u1da3",
    "2579": "\u0273",
    "2580": "\u0273\u0256",
    "2581": "\u0273\u0256r",
    "2582": "\u0273\u0256r\u0320",
    "2583": "\u0273\u0256\u027d",
    "2584": "\u0273\u0256\u0290",
    "2585": "\u0273\u0261",
    "2586": "\u0273\u0261\u02b7",
    "2587": "\u0273\u0266",
    "2588": "\u0273\u0288",
    "2589": "\u0273\u0288r\u0320\u0325",
    "2590": "\u0273\u0288\u027d\u0325\u02b0",
    "2591": "\u0273\u0288\u0282",
    "2592": "\u0273\u0288\u0282\u02b0",
    "2593": "\u0273\u0288\u02b0",
    "2594": "\u0273\u02b1",
    "2595": "\u0273\u02b7",
    "2596": "\u0273\u031f",
    "2597": "\u0273\u0324",
    "2598": "\u0273\u0325",
    "2599": "\u0273\u033a",
    "2600": "\u0274",
    "2601": "\u0274q",
    "2602": "\u0274q\u02b0",
    "2603": "\u0274\u0262",
    "2604": "\u0274\u02d0",
    "2605": "\u0275",
    "2606": "\u0275y",
    "2607": "\u0275\u0259",
    "2608": "\u0275\u02d0",
    "2609": "\u0275\u0303",
    "2610": "\u0275\u0306",
    "2611": "\u0275\u031e",
    "2612": "\u0275\u031e\u02d0",
    "2613": "\u0275\u031e\u0306",
    "2614": "\u0275\u031e\u0330",
    "2615": "\u0275\u031f",
    "2616": "\u0275\u0324",
    "2617": "\u0275\u0324\u02d0",
    "2618": "\u0276",
    "2619": "\u0276\u02d0",
    "2620": "\u0276\u031d",
    "2621": "\u0278",
    "2622": "\u0278\u02b0",
    "2623": "\u0278\u02b2",
    "2624": "\u0278\u02b7",
    "2625": "\u0278\u02b7\u02e0",
    "2626": "\u0278\u02bc",
    "2627": "\u0278\u02d0",
    "2628": "\u0278\u0303",
    "2629": "\u0278\u031e",
    "2630": "\u0279",
    "2631": "\u0279\u02e4",
    "2632": "\u0279\u031d",
    "2633": "\u0279\u0325",
    "2634": "\u0279\u0329",
    "2635": "\u0279\u032a|\u0279",
    "2636": "\u0279\u032a\u0325|\u0279\u0325",
    "2637": "\u0279\u032a\u0329",
    "2638": "\u0279\u032a\u0329\u02e0",
    "2639": "\u0279\u032a\u0330\u0329",
    "2640": "\u0279\u032a\u0339\u0329",
    "2641": "\u0279\u0330\u02e4",
    "2642": "\u0279\u033a",
    "2643": "\u027a",
    "2644": "\u027a\u02b2",
    "2645": "\u027a\u02d0",
    "2646": "\u027a\u0320",
    "2647": "\u027a\u0320\u0330",
    "2648": "\u027a\u0325",
    "2649": "\u027a\u032a|\u027a",
    "2650": "\u027a\u033a\u0320",
    "2651": "\u027b",
    "2652": "\u027b\u02b2",
    "2653": "\u027b\u02b7",
    "2654": "\u027b\u02d0",
    "2655": "\u027b\u030a",
    "2656": "\u027b\u031f",
    "2657": "\u027b\u0329",
    "2658": "\u027b\u0339\u0329",
    "2659": "\u027b\u033a",
    "2660": "\u027d",
    "2661": "\u027d\u02b1",
    "2662": "\u027d\u0303",
    "2663": "\u027d\u030a",
    "2664": "\u027d\u0324",
    "2665": "\u027d\u0329",
    "2666": "\u027e",
    "2667": "\u027e\u02b1",
    "2668": "\u027e\u02b2",
    "2669": "\u027e\u02b7",
    "2670": "\u027e\u02b7\u02b2",
    "2671": "\u027e\u02c0",
    "2672": "\u027e\u02d0",
    "2673": "\u027e\u02e0",
    "2674": "\u027e\u02e4",
    "2675": "\u027e\u0303",
    "2676": "\u027e\u031e",
    "2677": "\u027e\u0320",
    "2678": "\u027e\u0324",
    "2679": "\u027e\u0325",
    "2680": "\u027e\u0325\u02b2",
    "2681": "\u027e\u0325\u02e0",
    "2682": "\u027e\u032a",
    "2683": "\u027e\u032a|\u027e",
    "2684": "\u027e\u032a\u02b2",
    "2685": "\u027e\u032a\u02b2|\u027e\u02b2",
    "2686": "\u027e\u032a\u02e0",
    "2687": "\u027e\u032a\u030a",
    "2688": "\u027e\u032a\u030a\u02b0",
    "2689": "\u027e\u0330",
    "2690": "\u027e\u033a",
    "2691": "\u027e\u033b",
    "2692": "\u027e\u0353",
    "2693": "\u0280",
    "2694": "\u0280\u0281",
    "2695": "\u0281",
    "2696": "\u0281\u02b2",
    "2697": "\u0281\u02b7",
    "2698": "\u0281\u02b7\u02d0",
    "2699": "\u0281\u02b7\u02e4",
    "2700": "\u0281\u02d0",
    "2701": "\u0281\u02e4",
    "2702": "\u0281\u031e",
    "2703": "\u0281\u031e\u02b7",
    "2704": "\u0281\u031e\u0330\u02b7",
    "2705": "\u0282",
    "2706": "\u0282\u02b0",
    "2707": "\u0282\u02bc",
    "2708": "\u0282\u02d0",
    "2709": "\u0282\u033b",
    "2710": "\u0282\u0347",
    "2711": "\u0282\u0349",
    "2712": "\u0283",
    "2713": "\u0283t",
    "2714": "\u0283\u02b0",
    "2715": "\u0283\u02b2",
    "2716": "\u0283\u02b2\u02d0",
    "2717": "\u0283\u02b7",
    "2718": "\u0283\u02b7\u02d0",
    "2719": "\u0283\u02bc",
    "2720": "\u0283\u02bc\u02d0",
    "2721": "\u0283\u02c0",
    "2722": "\u0283\u02d0",
    "2723": "\u0283\u02d1",
    "2724": "\u0283\u02e0",
    "2725": "\u0283\u02e4",
    "2726": "\u0283\u031e",
    "2727": "\u0283\u031e\u02bc",
    "2728": "\u0283\u033a",
    "2729": "\u0283\u0347",
    "2730": "\u0283\u0348",
    "2731": "\u0283\u0348\u02b7",
    "2732": "\u0283\u0348\u02d0",
    "2733": "\u0283\u0349",
    "2734": "\u0284",
    "2735": "\u0284\u0325",
    "2736": "\u0286",
    "2737": "\u0286\u02b7",
    "2738": "\u0286\u02b7\u02bc",
    "2739": "\u0286\u02bc",
    "2740": "\u0288",
    "2741": "\u0288r",
    "2742": "\u0288r\u0320\u0325",
    "2743": "\u0288\u0273",
    "2744": "\u0288\u0279\u0320\u0325",
    "2745": "\u0288\u027d",
    "2746": "\u0288\u027d\u0325",
    "2747": "\u0288\u027d\u0325\u02b0",
    "2748": "\u0288\u0282",
    "2749": "\u0288\u0282\u02b0",
    "2750": "\u0288\u0282\u02b7",
    "2751": "\u0288\u0282\u02bc",
    "2752": "\u0288\u0282\u02d0",
    "2753": "\u0288\u0282\u0347",
    "2754": "\u0288\u02b0",
    "2755": "\u0288\u02b0\u02d0",
    "2756": "\u0288\u02b7",
    "2757": "\u0288\u02bc",
    "2758": "\u0288\u02c0",
    "2759": "\u0288\u02d0",
    "2760": "\u0288\u031f",
    "2761": "\u0288\u033a",
    "2762": "\u0288\u033b\u0282\u033b",
    "2763": "\u0288\u0348",
    "2764": "\u0288\u0349",
    "2765": "\u0289",
    "2766": "\u0289i",
    "2767": "\u0289i\u032f",
    "2768": "\u0289u",
    "2769": "\u0289\u0153\u0320",
    "2770": "\u0289\u0259",
    "2771": "\u0289\u025e\u0320",
    "2772": "\u0289\u02d0",
    "2773": "\u0289\u0303",
    "2774": "\u0289\u0303\u02d0",
    "2775": "\u0289\u0306",
    "2776": "\u0289\u031e",
    "2777": "\u0289\u031f",
    "2778": "\u0289\u031f\u02d0",
    "2779": "\u0289\u0330",
    "2780": "\u028a",
    "2781": "\u028aa",
    "2782": "\u028ae",
    "2783": "\u028ai",
    "2784": "\u028au",
    "2785": "\u028a\u0254",
    "2786": "\u028a\u0259",
    "2787": "\u028a\u026a",
    "2788": "\u028a\u02d0",
    "2789": "\u028a\u02e4",
    "2790": "\u028a\u02e4\u02d0",
    "2791": "\u028a\u0303",
    "2792": "\u028a\u0303\u02d0",
    "2793": "\u028a\u0306",
    "2794": "\u028a\u0308",
    "2795": "\u028a\u0308i",
    "2796": "\u028a\u0308\u02d0",
    "2797": "\u028a\u0319",
    "2798": "\u028a\u0319\u02d0",
    "2799": "\u028a\u031c",
    "2800": "\u028a\u031c\u0308",
    "2801": "\u028a\u031e",
    "2802": "\u028a\u031e\u0308",
    "2803": "\u028a\u031f",
    "2804": "\u028a\u0324",
    "2805": "\u028a\u0324\u02d0",
    "2806": "\u028a\u032f",
    "2807": "\u028a\u032fa\u026a\u032f",
    "2808": "\u028a\u032f\u0250\u0303",
    "2809": "\u028a\u032f\u0254",
    "2810": "\u028a\u0330",
    "2811": "\u028a\u033d",
    "2812": "\u028b",
    "2813": "\u028b\u02b2",
    "2814": "\u028b\u02d0",
    "2815": "\u028b\u0329",
    "2816": "\u028c",
    "2817": "\u028ci",
    "2818": "\u028ci\u032f",
    "2819": "\u028cu",
    "2820": "\u028cy",
    "2821": "\u028c\u0259",
    "2822": "\u028c\u026f",
    "2823": "\u028c\u02d0",
    "2824": "\u028c\u02e4\u02d0",
    "2825": "\u028c\u0303",
    "2826": "\u028c\u0303\u02d0",
    "2827": "\u028c\u0324",
    "2828": "\u028c\u0324\u02d0",
    "2829": "\u028c\u032f",
    "2830": "\u028d",
    "2831": "\u028dw",
    "2832": "\u028d\u02b2",
    "2833": "\u028e",
    "2834": "\u028e\u02b1",
    "2835": "\u028e\u02bc",
    "2836": "\u028e\u02d0",
    "2837": "\u028e\u031f",
    "2838": "\u028e\u031f\u0325",
    "2839": "\u028e\u0325",
    "2840": "\u028e\u033b",
    "2841": "\u028e\u033b\u031f",
    "2842": "\u028f",
    "2843": "\u028fi\u032f",
    "2844": "\u028f\u02d0",
    "2845": "\u028f\u0303",
    "2846": "\u028f\u0303\u02d0",
    "2847": "\u0290",
    "2848": "\u0290\u02b2",
    "2849": "\u0290\u02b7",
    "2850": "\u0290\u0330",
    "2851": "\u0290\u033b",
    "2852": "\u0290\u0347",
    "2853": "\u0291",
    "2854": "\u0291\u02d0",
    "2855": "\u0291\u031f",
    "2856": "\u0291\u1da3",
    "2857": "\u0292",
    "2858": "\u0292\u02b2",
    "2859": "\u0292\u02b2\u02d0",
    "2860": "\u0292\u02b7",
    "2861": "\u0292\u02c0",
    "2862": "\u0292\u02d0",
    "2863": "\u0292\u02e0",
    "2864": "\u0292\u02e4",
    "2865": "\u0292\u02e4\u02d0",
    "2866": "\u0292\u030a",
    "2867": "\u0292\u0324",
    "2868": "\u0292\u0329",
    "2869": "\u0292\u033a",
    "2870": "\u0292\u0347",
    "2871": "\u0292\u0348\u02d0",
    "2872": "\u0293",
    "2873": "\u0293\u02b7",
    "2874": "\u0294",
    "2875": "\u0294j",
    "2876": "\u0294w",
    "2877": "\u0294\u014b\u01c0",
    "2878": "\u0294\u014b\u01c1",
    "2879": "\u0294\u014b\u01c2",
    "2880": "\u0294\u014b\u01c3",
    "2881": "\u0294\u014b\u0298",
    "2882": "\u0294\u027e",
    "2883": "\u0294\u02b2",
    "2884": "\u0294\u02b2\u02d0",
    "2885": "\u0294\u02b7",
    "2886": "\u0294\u02b7\u02bc",
    "2887": "\u0294\u02bc",
    "2888": "\u0294\u02d0",
    "2889": "\u0294\u02e4",
    "2890": "\u0294\u0303",
    "2891": "\u0294\u032c",
    "2892": "\u0295",
    "2893": "\u0295\u02b7",
    "2894": "\u0295\u02b7\u02bc",
    "2895": "\u0295\u02bc",
    "2896": "\u0295\u02d0",
    "2897": "\u0295\u0319",
    "2898": "\u0295\u031d",
    "2899": "\u0295\u0330",
    "2900": "\u0295\u0330\u02b7",
    "2901": "\u0299",
    "2902": "\u029b\u0325",
    "2903": "\u029c",
    "2904": "\u029c\u02b7",
    "2905": "\u029c\u02d0",
    "2906": "\u029d",
    "2907": "\u029d\u02d0",
    "2908": "\u029d\u031f",
    "2909": "\u029f",
    "2910": "\u029f\u0353\u0325",
    "2911": "\u02a1",
    "2912": "\u02a1\u02e4",
    "2913": "\u02a2",
    "2914": "\u02a2\u02b7",
    "2915": "\u02b0c",
    "2916": "\u02b0k",
    "2917": "\u02b0k\u02b0",
    "2918": "\u02b0k\u02b2",
    "2919": "\u02b0k\u02b7",
    "2920": "\u02b0k\u02d0",
    "2921": "\u02b0l\u0325",
    "2922": "\u02b0p",
    "2923": "\u02b0p\u02b0",
    "2924": "\u02b0p\u02b2",
    "2925": "\u02b0p\u02d0",
    "2926": "\u02b0q",
    "2927": "\u02b0q\u02b0",
    "2928": "\u02b0s\u02b0",
    "2929": "\u02b0s\u032a|\u02b0s",
    "2930": "\u02b0t",
    "2931": "\u02b0ts",
    "2932": "\u02b0ts\u02b0",
    "2933": "\u02b0ts\u02b2",
    "2934": "\u02b0ts\u02d0",
    "2935": "\u02b0t\u0255",
    "2936": "\u02b0t\u0255\u02b0",
    "2937": "\u02b0t\u02b0",
    "2938": "\u02b0t\u02b2",
    "2939": "\u02b0t\u02d0",
    "2940": "\u02b0t\u0320\u0283",
    "2941": "\u02b0t\u0320\u0283\u02b0",
    "2942": "\u02b0t\u0320\u0283\u02d0",
    "2943": "\u02b0\u0283",
    "2944": "\u02b0\u0288",
    "2945": "\u02b0\u0288\u0282\u02b0",
    "2946": "\u02b1b",
    "2947": "\u02b1d",
    "2948": "\u02b1dz",
    "2949": "\u02b1d\u0291",
    "2950": "\u02b1j",
    "2951": "\u02b1l",
    "2952": "\u02b1m",
    "2953": "\u02b1n",
    "2954": "\u02b1n\u032a",
    "2955": "\u02b1w",
    "2956": "\u02b1z",
    "2957": "\u02b1\u014b",
    "2958": "\u02b1\u0256",
    "2959": "\u02b1\u025f",
    "2960": "\u02b1\u0261",
    "2961": "\u02b1\u0272",
    "2962": "\u02b1\u027e",
    "2963": "\u02b1\u027e\u032a",
    "2964": "\u02b1\u0290",
    "2965": "\u02b7d",
    "2966": "\u02b7l",
    "2967": "\u02b7m",
    "2968": "\u02b7r",
    "2969": "\u02b7z",
    "2970": "\u02b7\u025f",
    "2971": "\u02b7\u0290",
    "2972": "\u02b7\u0291",
    "2973": "\u02b7\u02b0k",
    "2974": "\u02b7\u02b0s",
    "2975": "\u02b7\u02b0s\u02b0",
    "2976": "\u02b7\u02b0t",
    "2977": "\u02b7\u02b0ts",
    "2978": "\u02b7\u02b0t\u0255",
    "2979": "\u02b7\u02b0\u0255\u02b0",
    "2980": "\u02b7\u02b0\u0282\u02b0",
    "2981": "\u02b7\u02b0\u0288",
    "2982": "\u02bcb",
    "2983": "\u02bcd",
    "2984": "\u02bcj",
    "2985": "\u02bcl",
    "2986": "\u02bcm",
    "2987": "\u02bcn",
    "2988": "\u02bcs",
    "2989": "\u02bcw",
    "2990": "\u02bc\u014b",
    "2991": "\u02bc\u014b\u01c0",
    "2992": "\u02bc\u014b\u01c3",
    "2993": "\u02bc\u0261",
    "2994": "\u02bc\u0263",
    "2995": "\u02bc\u0272",
    "2996": "\u02bc\u0283",
    "2997": "\u02c0b",
    "2998": "\u02c0b\u0349",
    "2999": "\u02c0c",
    "3000": "\u02c0d",
    "3001": "\u02c0d\u0320\u0292",
    "3002": "\u02c0d\u032a",
    "3003": "\u02c0j",
    "3004": "\u02c0j\u0325",
    "3005": "\u02c0j\u0330",
    "3006": "\u02c0k",
    "3007": "\u02c0kp",
    "3008": "\u02c0k\u02b7",
    "3009": "\u02c0l",
    "3010": "\u02c0l\u032a\u0325",
    "3011": "\u02c0m",
    "3012": "\u02c0m\u02d0",
    "3013": "\u02c0m\u0325",
    "3014": "\u02c0n",
    "3015": "\u02c0n\u02d0",
    "3016": "\u02c0n\u032a\u0325",
    "3017": "\u02c0o\u032f",
    "3018": "\u02c0p",
    "3019": "\u02c0q",
    "3020": "\u02c0r",
    "3021": "\u02c0s",
    "3022": "\u02c0t",
    "3023": "\u02c0t\u032a",
    "3024": "\u02c0t\u032as",
    "3025": "\u02c0t\u032a\u026c",
    "3026": "\u02c0w",
    "3027": "\u02c0w\u0325",
    "3028": "\u02c0w\u0330",
    "3029": "\u02c0y",
    "3030": "\u02c0\u014b",
    "3031": "\u02c0\u0256",
    "3032": "\u02c0\u0257",
    "3033": "\u02c0\u025f",
    "3034": "\u02c0\u0261",
    "3035": "\u02c0\u0261b",
    "3036": "\u02c0\u0261\u02b7",
    "3037": "\u02c0\u0272",
    "3038": "\u02c0\u0272\u02d0",
    "3039": "\u02c0\u0283\u02b7",
    "3040": "\u02c0\u028d",
    "3041": "\u02c0\u028d\u02b2",
    "3042": "\u02e5",
    "3043": "\u02e5\u02e6",
    "3044": "\u02e5\u02e7",
    "3045": "\u02e5\u02e7\u02e5",
    "3046": "\u02e5\u02e7\u0330",
    "3047": "\u02e5\u02e8",
    "3048": "\u02e5\u02e8\u02e7",
    "3049": "\u02e5\u02e9",
    "3050": "\u02e5\u02e9\u02e9\u02e5",
    "3051": "\u02e5\u0330",
    "3052": "\u02e6",
    "3053": "\u02e6\u02c0",
    "3054": "\u02e6\u02e5",
    "3055": "\u02e6\u02e5\u02e6",
    "3056": "\u02e6\u02e5\u0330",
    "3057": "\u02e6\u02e6\u02e8",
    "3058": "\u02e6\u02e7",
    "3059": "\u02e6\u02e8",
    "3060": "\u02e6\u02e8\u02e6",
    "3061": "\u02e6\u02e8\u02e8",
    "3062": "\u02e6\u02e9",
    "3063": "\u02e6\u02e9\u02e8",
    "3064": "\u02e6\u0330",
    "3065": "\u02e6\u2193\u02e6",
    "3066": "\u02e7",
    "3067": "\u02e7\u02e5",
    "3068": "\u02e7\u02e5\u02e8",
    "3069": "\u02e7\u02e6",
    "3070": "\u02e7\u02e6\u02e7",
    "3071": "\u02e7\u02e8",
    "3072": "\u02e7\u02e8\u02e4",
    "3073": "\u02e7\u02e8\u02e5",
    "3074": "\u02e7\u02e8\u02e7",
    "3075": "\u02e7\u02e8\u0324",
    "3076": "\u02e7\u02e9",
    "3077": "\u02e7\u02e9\u0324",
    "3078": "\u02e7\u02e9\u0330",
    "3079": "\u02e8",
    "3080": "\u02e8\u02e5",
    "3081": "\u02e8\u02e5\u02e9",
    "3082": "\u02e8\u02e6",
    "3083": "\u02e8\u02e6\u02e6",
    "3084": "\u02e8\u02e6\u02e7",
    "3085": "\u02e8\u02e6\u02e8",
    "3086": "\u02e8\u02e7",
    "3087": "\u02e8\u02e7\u02e8",
    "3088": "\u02e8\u02e7\u02e9",
    "3089": "\u02e8\u02e8\u02e6",
    "3090": "\u02e8\u02e9",
    "3091": "\u02e8\u02e9\u0324",
    "3092": "\u02e9",
    "3093": "\u02e9\u02e5",
    "3094": "\u02e9\u02e7",
    "3095": "\u02e9\u02e7\u02e9",
    "3096": "\u02e9\u02e8",
    "3097": "\u02e9\u0330",
    "3098": "\u03b2",
    "3099": "\u03b2\u02b2",
    "3100": "\u03b2\u02b2\u02d0",
    "3101": "\u03b2\u02b7",
    "3102": "\u03b2\u02d0",
    "3103": "\u03b2\u0303",
    "3104": "\u03b2\u031e",
    "3105": "\u03b2\u031e\u02b2",
    "3106": "\u03b2\u031e\u02d0",
    "3107": "\u03b2\u031e\u02e0",
    "3108": "\u03b8",
    "3109": "\u03b8\u02bc",
    "3110": "\u03b8\u02d0",
    "3111": "\u03b8\u032a",
    "3112": "\u03b8\u0330",
    "3113": "\u03b8\u033b",
    "3114": "\u03c7",
    "3115": "\u03c7\u02b2",
    "3116": "\u03c7\u02b7",
    "3117": "\u03c7\u02b7\u02b2",
    "3118": "\u03c7\u02b7\u02bc",
    "3119": "\u03c7\u02b7\u02d0",
    "3120": "\u03c7\u02b7\u02e4",
    "3121": "\u03c7\u02b7\u02e4\u02d0",
    "3122": "\u03c7\u02bc",
    "3123": "\u03c7\u02bc\u02d0",
    "3124": "\u03c7\u02d0",
    "3125": "\u03c7\u02e4",
    "3126": "\u03c7\u02e4\u02d0",
    "3127": "\u03c7\u0348",
    "3128": "\u03c7\u0348\u02b7",
    "3129": "\u1d05",
    "3130": "\u1d05\u032a",
    "3131": "\u1d05\u032a\u0330",
    "3132": "\u1d91",
    "3133": "\u1d91\u02bc",
    "3134": "\u1d91\u02bc\u02d0",
    "3135": "\u1d91\u02d0",
    "3136": "\u2193",
    "3137": "\u2193\u02e6",
    "3138": "\u2193\u02e6\u02e8",
    "3139": "\u2193\u02e6\u2193\u02e6",
    "3140": "\u2c71",
    "3141": "\u2c71\u031f"
  }
}